{
  "vocab": {
    "Ġwhip": 24114,
    "sticks": 27953,
    "ardro": 13839,
    "Ġclockwise": 20003,
    "herich": 46759,
    "ĠRegulations": 23796,
    "Dis": 10162,
    "Ġspectacles": 39558,
    "Ġprocurement": 39976,
    "Ġtransferring": 12591,
    "Ġaffects": 6291,
    "ĠSuff": 32333,
    "ĠHunter": 36490,
    "ĠAlto": 47554,
    "sect": 5216,
    "benders": 46217,
    "Ġhypertext": 41643,
    "Good": 9179,
    "ĠGenerator": 44608,
    "Ġmischief": 35687,
    "Ġmurder": 15272,
    "ĠGabriel": 34251,
    "Ġgard": 3123,
    "Ġdecrement": 36923,
    "Ġmusicians": 19140,
    "ĠPric": 23634,
    "ĠRhapsody": 35973,
    "Ġconfided": 47478,
    "ĠExamining": 42541,
    "ĠLevels": 18900,
    "Propose": 10460,
    "Ġkeepsake": 44699,
    "ocentric": 38362,
    "ĠKas": 34949,
    "Ġk": 480,
    "ĠFitz": 13335,
    "Ġcorn": 8915,
    "------------------|": 41464,
    "Basket": 42150,
    "ĠEntire": 39437,
    "rasive": 46320,
    "thread": 19327,
    "diversity": 42958,
    "Ġbloggers": 16498,
    "Ġhelped": 4503,
    "ĠPolyn": 39182,
    "Ġskull": 29962,
    "ĠOptions": 23849,
    "White": 28339,
    "Ġfictional": 8293,
    "Ġ1974": 36781,
    "ftime": 31066,
    "Ġapology": 16500,
    "Say": 25136,
    "oned": 8386,
    "Ġfreelancing": 39526,
    "'{": 34364,
    "Ġstraightforward": 9857,
    "Ġtriangles": 13957,
    "Ġdescriptors": 44470,
    "ĠFermat": 28080,
    "Ġextru": 22397,
    "ĠYour": 3937,
    "Ġinstincts": 17529,
    "atou": 38125,
    "Ġenact": 18533,
    "ĠMartin": 11396,
    "ĠTexas": 11335,
    "35": 6438,
    "ten": 834,
    "fi": 15447,
    "Ġinfest": 36726,
    "Ġphotoelectric": 28389,
    "itches": 11161,
    "Ġpayable": 44130,
    "Ġdressing": 10716,
    "ĠVARCHAR": 16764,
    "ĠÂ£": 19994,
    "Ġcourses": 4860,
    "Ġcosmological": 35503,
    "Ġsector": 6775,
    "Ġuncovered": 20273,
    "{|": 38088,
    "Ġaccompany": 17499,
    "ĠHealthy": 12656,
    "ĠAlone": 35053,
    "ĠIndigenous": 31103,
    "Ġbureaucracy": 45760,
    "ratulations": 16901,
    "Process": 27492,
    "Ġache": 38480,
    "Ġcargo": 21569,
    "Ġgovernmental": 28257,
    "Ġinstitutional": 29414,
    "Ġdepend": 2286,
    "Ġexp": 815,
    "Ġauditing": 44003,
    "ĠBiking": 29882,
    "Ġseventeen": 45279,
    "aphora": 49402,
    "Ġworst": 11351,
    "ĠCreat": 5705,
    "Ġcertain": 2077,
    "emap": 36403,
    "ĠObservatory": 29562,
    "Ġshelters": 27397,
    "TSS": 46176,
    "Ġprotectionism": 32417,
    "ĠRegional": 35170,
    "ets": 1752,
    "hur": 38021,
    "Ã³": 17153,
    "Ġvarious": 1364,
    "Ġlaborious": 48161,
    "Renewable": 15143,
    "Ġassurance": 20206,
    "Ġvibr": 3966,
    "Ġcarve": 29959,
    "ĠCourts": 29375,
    "Ġroadway": 35184,
    "ĠHeat": 8646,
    "ĠAnch": 32170,
    "ABASE": 48695,
    "]+": 14258,
    "ĠLilienthal": 38546,
    "Ġenforcer": 44978,
    "ĠGriffith": 49743,
    "Ġmanage": 1311,
    "chased": 38237,
    "Ġprizes": 21486,
    "Ġresizing": 24142,
    "Ġtranslate": 11250,
    "Ġexpl": 1046,
    "ĠOrder": 8530,
    "comple": 35037,
    "Ken": 40144,
    "024": 50180,
    "Ġbuyer": 14081,
    "Ġseper": 36419,
    "Ġreplenishes": 45069,
    "itary": 4802,
    "Ġ2000": 9724,
    "Ġboosting": 10241,
    "ĠAltern": 8587,
    "tainment": 10694,
    "ĠLux": 16440,
    "hor": 1607,
    "ocker": 32164,
    "Ġbon": 5317,
    "Ġinfrastructures": 39936,
    "ĠViking": 38676,
    "Ġaligns": 12022,
    "Ġcomplexion": 43998,
    "ĠProfession": 39376,
    "ĠFlood": 22916,
    "Ġreactor": 21342,
    "Ġextensible": 39548,
    "Ġcape": 41099,
    "Widget": 36088,
    "Ġcottage": 12141,
    "Ġcompress": 13273,
    "Ġanomalies": 14378,
    "Output": 6081,
    "Ġovertime": 21206,
    "Ġherbicides": 29369,
    "Ġdifferentiate": 10003,
    "ĠGertrude": 34353,
    "four": 26422,
    "ĠFriends": 18426,
    "Ġlentils": 14633,
    "Arr": 44498,
    "Ġcoop": 5781,
    "Ġfawn": 41627,
    "Ġconvolution": 31938,
    "Ġdomain": 6307,
    "Ġdepressed": 32150,
    "Ġchickens": 17120,
    "Ġquantum": 4708,
    "setting": 26027,
    "ĠKnowing": 14112,
    "Ġmet": 902,
    "Ġterritorial": 18668,
    "Ġsystem": 691,
    "Ġjury": 22349,
    "untarily": 41684,
    "ĠCurriculum": 39249,
    "Ġletting": 12824,
    "anche": 34894,
    "Ġparked": 36981,
    "Ġfavourite": 32893,
    "ĠNails": 47151,
    "ctory": 20458,
    "encoded": 41338,
    "|)": 34524,
    "Ġenriches": 27777,
    "riminant": 31177,
    "Ġaffective": 44151,
    "ĠSIM": 33235,
    "Ġsparking": 25889,
    "Homeschooling": 42691,
    "Ġceremonial": 25045,
    "Ġrestart": 26682,
    "Ġdeny": 18923,
    "Ġores": 46433,
    "cheduling": 41347,
    "IoT": 12527,
    "Â°.": 26081,
    "Ġfittings": 44215,
    "Ġinvesting": 5222,
    "lause": 28790,
    "ĠLakes": 32050,
    "Daisy": 50035,
    "ĠWoody": 48851,
    "Ġsec": 1999,
    "Ġtraged": 12166,
    "ĠStar": 8229,
    "Cardiovascular": 49426,
    "Ġadmired": 15707,
    "Ġrooft": 18302,
    "fueled": 42975,
    "ĠParks": 21170,
    "Ġmonetize": 21805,
    "eterm": 3228,
    "ĠKnight": 20564,
    "Ġfare": 14761,
    "ĠPegasus": 35237,
    "race": 13476,
    "ĠKristin": 49486,
    "Ġredefine": 35855,
    "Ġcans": 15475,
    "Ġconsequent": 44254,
    "ĠHarry": 5939,
    "plo": 28928,
    "ĠDumplings": 49862,
    "Further": 32996,
    "Ġmaid": 21132,
    "ĠArtist": 39062,
    "ĠPen": 9001,
    "ĠLaughing": 49731,
    "ĠVish": 41002,
    "ĠSonoran": 49246,
    "erg": 707,
    "hungry": 46267,
    "Ġaddresses": 8134,
    "avender": 32039,
    "Ġreadable": 12175,
    "Ġpoints": 1962,
    "etime": 7063,
    "ters": 2510,
    "Tailor": 49715,
    "Ġeerie": 14030,
    "Ġshouted": 30395,
    "Ġsafari": 26696,
    "Ġfossils": 31181,
    "Ġsmoothie": 8504,
    "png": 31796,
    "Ġpraised": 16548,
    "Ġ1005": 47855,
    "isa": 8936,
    "Ġ'-'": 39731,
    "Ġgenders": 27970,
    "ĠBellagio": 39510,
    "Ġdeath": 4024,
    "pson": 18578,
    "Ġterminals": 33639,
    "Ġcosmetics": 23361,
    "ial": 436,
    "ĠClock": 20918,
    "plane": 8642,
    "Ġsin": 13465,
    "Ġspaceflight": 29138,
    "ĠAmphibians": 34315,
    "Ġcrush": 29733,
    "eton": 34608,
    "ĠWashing": 7262,
    "Ġrandom": 3506,
    "Ġbullet": 13984,
    "Ġracket": 48946,
    "ĠLouise": 32584,
    "Cartney": 42308,
    "ancers": 14057,
    "Ġpierce": 45098,
    "People": 10775,
    "Ġliking": 18510,
    "Ġdiagram": 25340,
    "movie": 28496,
    "Ġshaped": 8987,
    "ĠDar": 10326,
    "Ġballer": 36976,
    "akeable": 46890,
    "ecko": 47046,
    "Aria": 36008,
    "ĠJapan": 4013,
    "ĠRetirement": 31237,
    "Ġheterogeneous": 27797,
    "ĠIngredients": 20136,
    "Ġdid": 2487,
    "Ġregulating": 8438,
    "Ġconfined": 22831,
    "Ġexisted": 16869,
    "Ġwrongs": 44516,
    "Ġminimized": 21267,
    "Ġhydrated": 9220,
    "reason": 34544,
    "Ġscenes": 10446,
    "ĠTravel": 10016,
    "Ġmedicine": 5770,
    "Ġdisk": 12459,
    "ĠSuez": 42384,
    "Ġisolating": 18928,
    "Ġfeaturing": 6851,
    "Ġtramp": 26600,
    "zer": 10373,
    "Ġmuffin": 22614,
    "ĠRequired": 33986,
    "Rainbows": 42175,
    "Ġguy": 19645,
    "Sample": 21449,
    "Ġrein": 5519,
    "Ġgotta": 15311,
    "ĠBah": 24675,
    "ĠSites": 40587,
    "omers": 46534,
    "Ġrue": 47340,
    "ĠChamomile": 45371,
    "ĠMomentum": 37617,
    "Ġundisc": 33723,
    "inst": 17156,
    "stakes": 31872,
    "stances": 5082,
    "ĠToast": 17647,
    "Mamm": 21446,
    "ĠOdd": 40806,
    "114": 41293,
    "ĠFile": 19077,
    "ope": 1932,
    "atered": 23608,
    "Scope": 48389,
    "WHERE": 10728,
    "Ġcomposted": 48477,
    "Ġantel": 35752,
    "akes": 1114,
    "Lear": 10727,
    "Ġcher": 5384,
    "Ġextension": 12735,
    "pies": 38047,
    "ĠAlaska": 18340,
    "ĠIowa": 27959,
    "ĠĠĠĠĠĠĠĠĠĠĠĠĠĠĠĠĠĠĠĠĠĠĠĠĠĠĠĠĠĠĠĠĠĠĠĠĠĠĠĠĠĠĠ": 39409,
    "Ġslider": 35071,
    "Ġwhiskey": 44999,
    "Healthcare": 22994,
    "Ġapostrophe": 39018,
    "Ġconj": 7893,
    "ĠAccompl": 48380,
    "rontal": 38728,
    "Ġredisc": 33638,
    "Ġsett": 10995,
    "ĠDigestive": 49293,
    "flow": 4442,
    "Ġvoters": 16522,
    "Ġsubtract": 8012,
    "num": 2830,
    "Ġbilling": 14397,
    "ĠExplainable": 39470,
    "Ġinhospitable": 32468,
    "Ġhypothesized": 50009,
    "Ġgently": 6412,
    "Ġauthentic": 13131,
    "Ġocc": 4254,
    "Ġdiner": 40448,
    "grand": 27514,
    "ĠMasters": 46916,
    "Ġsnowfall": 30170,
    "ĠInstall": 7884,
    "veling": 46998,
    "ĠendIndex": 36723,
    "ren": 984,
    "olve": 3461,
    "side": 2576,
    "Ġpayload": 44131,
    "ĠToastmasters": 49196,
    "Ġsituational": 33538,
    "Ġalternator": 39021,
    "ĠCanidae": 47716,
    "Ġdynam": 4098,
    "Ġcomputerized": 41038,
    "Effects": 34243,
    "Ġphysiological": 18444,
    "ĠMild": 46909,
    "ĠWe": 1680,
    "Ġpotluck": 36678,
    "Ġmetabol": 10418,
    "Ġinteract": 1783,
    "gypt": 7122,
    "ĠEC": 33287,
    "ĠRails": 38255,
    "Ġlearning": 823,
    "greeting": 34287,
    "Ġprose": 22743,
    "ĠCommon": 8834,
    "APK": 41980,
    "Ġcloseness": 39091,
    "freq": 21807,
    "opsis": 16499,
    "Employees": 27705,
    "Ġadjust": 2609,
    "Ġlesions": 42533,
    "Ġecological": 14676,
    "Ġarom": 9462,
    "Ġtypo": 34895,
    "ĠFascist": 49645,
    "Ġlemons": 23027,
    "Ġpassage": 4384,
    "Ġbishops": 29576,
    "Ġ280": 24150,
    "Ġrelevancy": 38730,
    "ĠPuff": 31979,
    "ĠSetup": 44249,
    "ĠFlute": 41549,
    "Ġmonitored": 15395,
    "gravity": 29192,
    "Ġbewildered": 42664,
    "dev": 17044,
    "Ġcodon": 30409,
    "Ġapt": 21476,
    "ĠBib": 43508,
    "ĠRelativity": 22100,
    "Ġbeforehand": 17035,
    "EX": 17546,
    "ĠUE": 43683,
    "Ġendearing": 34969,
    "asive": 4903,
    "Explanation": 15421,
    "Ġescalated": 26262,
    "ĠBened": 43510,
    "results": 44664,
    "ĠZor": 17670,
    "NNs": 8263,
    "ĠOrville": 44221,
    "Ġanytime": 15499,
    "ĠFiji": 36516,
    "Ġelit": 31101,
    "Ġconnected": 3663,
    "268": 41803,
    "Ġliven": 43240,
    "Italy": 42442,
    "Ġdistract": 11622,
    "Ġfel": 26464,
    "ĠNaismith": 39332,
    "ĠDri": 15797,
    "Ġimport": 749,
    "ĠGomez": 43633,
    "ĠChia": 29080,
    "ĠHerbert": 32419,
    "ĠParent": 16252,
    "Eventually": 15896,
    "Ġinitiating": 35315,
    "Ġleadership": 5666,
    "Ġwaver": 47814,
    "Ġmission": 4704,
    "Ġdedication": 7117,
    "ĠPollock": 27672,
    "BK": 42795,
    "Ġfluctuates": 30282,
    "isen": 15458,
    "Ġhorizontally": 14965,
    "strength": 26481,
    "Ġabacus": 32012,
    "Ġdug": 27951,
    "cramble": 46225,
    "Bid": 46001,
    "Ġfeasible": 18193,
    "Ġcommod": 18299,
    "Ġoffenders": 26636,
    "}[-": 31815,
    "Ġbiod": 5033,
    "Exploring": 18685,
    "Ġfranch": 18187,
    "ARK": 31268,
    "Ġcatchy": 10151,
    "Ġfairies": 19958,
    "Ġinstrumentation": 35431,
    "Cos": 50246,
    "Ġleagues": 43415,
    "Ġunity": 14532,
    "ĠVe": 5261,
    "Ġawoke": 39239,
    "Ġ256": 16705,
    "some": 38065,
    "Ġtoxicity": 41937,
    "Ġconvers": 2579,
    "ĠBeowulf": 38838,
    "Ġviewpoints": 15379,
    "ĠAn": 1238,
    "ĠSM": 23614,
    "ĠRobb": 24897,
    "Ġjuic": 39095,
    "-%": 42761,
    "fire": 9786,
    "lav": 40277,
    "Ġjobs": 3805,
    "Ġcontaminate": 24367,
    "ividing": 20209,
    "ucket": 31191,
    "Ġbiscuit": 39879,
    "Ġinterviewer": 12017,
    "ĠMarathon": 33757,
    "Ġdisple": 36541,
    "Ġpipeline": 22153,
    "Ġreinvent": 48282,
    "Ġserotonin": 23743,
    "Ġdisadvant": 11386,
    "avers": 24702,
    "oper": 15175,
    "Ġsain": 46415,
    "edged": 31877,
    "odium": 14914,
    "ĠLMS": 40827,
    "school": 17999,
    "ĠAvoiding": 26823,
    "595": 50193,
    "Estimate": 12779,
    "Ġmarinated": 24257,
    "ĠStudy": 12758,
    "Threads": 31118,
    "cout": 22683,
    "myCalculation": 48053,
    "BODMAS": 49407,
    "Bella": 50242,
    "Ġtorques": 48797,
    "ĠHa": 17385,
    "ĠMemorial": 23878,
    "ĠAfrica": 5702,
    "Ġrive": 38452,
    "Ġvote": 6479,
    "ambour": 48288,
    "Ġcamel": 24232,
    "ĠEmergency": 16756,
    "hrase": 42985,
    "Ġbleeding": 35510,
    "Ġjaguar": 36560,
    "Ġneighbourhood": 50015,
    "uccino": 31579,
    "Ġdownloads": 21338,
    "ĠType": 9790,
    "ĠMaryland": 29351,
    "]*": 25763,
    "Ġreper": 21892,
    "654": 41676,
    "Ġsearches": 14007,
    "Ġplais": 46889,
    "Ġdistanced": 41031,
    "Ġrendered": 29774,
    "Ġanymore": 21562,
    "ĠBalboa": 44951,
    "east": 15290,
    "clamation": 22079,
    "tings": 4315,
    "ĠHP": 28063,
    "Ġdull": 19298,
    "angled": 21548,
    "vowel": 43059,
    "Ġ50": 3923,
    "ĠOrganic": 12594,
    "ĠBlack": 7021,
    "Ġexcav": 41187,
    "box": 7575,
    "ensable": 20542,
    "Ġinher": 8746,
    "Ġasph": 36356,
    "Ġbyproducts": 27745,
    "ĠRobot": 19162,
    "uality": 7287,
    "Third": 8764,
    "small": 17296,
    "Ġwavy": 43156,
    "Like": 15287,
    "Ġunfamiliar": 15554,
    "ĠCatholicism": 39614,
    "Ġcompar": 20512,
    "romedary": 49980,
    "Ġhunts": 30203,
    "Ġpatchwork": 49208,
    "ĠSt": 828,
    "ĠSummarization": 32914,
    "Ġraw": 6447,
    "Ġcriticized": 26225,
    "privile": 22636,
    "Ġreluctantly": 34185,
    "ĠSunglasses": 28899,
    "ĠsetBackgroundColor": 47275,
    "head": 2682,
    "Ġcores": 27411,
    "Ġavail": 1826,
    "Planting": 44607,
    "Ġconsolidation": 25039,
    "AND": 29329,
    ")])": 42755,
    "Ġchicks": 33260,
    "076": 50181,
    "Ġ***": 29076,
    "Ġreply": 16660,
    "Ġcrevice": 44295,
    "ĠPersistence": 22193,
    "Ġrestocking": 36767,
    "Ġheed": 29808,
    "inois": 15695,
    "Ġrationality": 49620,
    "Ġchills": 27294,
    "Ġenvironmentalism": 38934,
    "Ġsyn": 4017,
    "Ġwebinars": 20050,
    "Ġravaged": 29571,
    "iffel": 10535,
    "Ġmed": 833,
    "HR": 14255,
    "Ġcrude": 33594,
    "Ġpulled": 11449,
    "ĠLisp": 43650,
    "itation": 2435,
    "Ġlend": 12061,
    "Ġciting": 24056,
    "Ġextroverted": 45608,
    "ĠNamibia": 42642,
    "Ġhyperlink": 48330,
    "Ġtangible": 12938,
    "Ġprotagonist": 5711,
    "Ġforth": 9581,
    "ĠBCI": 32560,
    "Ġaudible": 35016,
    "Ġsilk": 20628,
    "ĠDelete": 38834,
    "-----------------------------": 39074,
    "Algorithmic": 34113,
    "ĠFulf": 36513,
    "Robots": 21359,
    "Ġhawk": 37653,
    "Ġmane": 13183,
    "Ġcontributors": 15215,
    "Ġpartitions": 38602,
    "Ġcolony": 18305,
    "percent": 28932,
    "Ġstolen": 13699,
    "Ġcomedy": 10171,
    "ĠAlliteration": 35255,
    "Code": 14490,
    "Ġassignments": 7761,
    "G": 43,
    "Ġtextured": 32133,
    "Ġlever": 8022,
    "ĠParking": 48555,
    "ondon": 6374,
    "Ġordering": 11309,
    "ĠAddiction": 25973,
    "Ġsexuality": 35496,
    "ĠLee": 10534,
    "Ġintrigued": 23434,
    "Ġimplicit": 25881,
    "Ġattentiveness": 37325,
    "ĠTides": 46610,
    "995": 44486,
    "gregation": 14132,
    "China": 14340,
    "Ġzero": 5817,
    "ĠExperimenting": 34027,
    "vertebrates": 46688,
    "Ġbrake": 18087,
    "ĠPlace": 5284,
    "Ġorangutans": 46666,
    "ĠMessaging": 31488,
    "Ġ----": 18485,
    "Ġtempting": 26989,
    "Ġupgrades": 18947,
    "Reminder": 39188,
    "lam": 9538,
    "Ġvolcan": 7824,
    "ĠTerminator": 49273,
    "astrous": 21541,
    "Ġvolunteerism": 42083,
    "Ġominous": 22709,
    "ĠDw": 29909,
    "Â±": 46359,
    "âĢľ": 13390,
    "Ġreduction": 5780,
    "apagos": 36583,
    "Bonjour": 28655,
    "boat": 28501,
    "Ġcorporate": 10511,
    "Ġmulticellular": 25713,
    "enn": 7359,
    "ĠPors": 46851,
    "ny": 3425,
    "Ġpastoral": 47615,
    "Ġenjoys": 9440,
    "Ġtardy": 45434,
    "Ġprotect": 1677,
    "Ġsolo": 19373,
    "ortgage": 40637,
    "anical": 27206,
    "Ġredistribution": 31519,
    "ĠLoading": 45107,
    "Ġiteration": 8787,
    "Ġillustrations": 16343,
    "Ġpredictive": 5085,
    "Ġexpel": 40939,
    "ĠNike": 16650,
    "Australia": 23505,
    "Ġdatab": 2511,
    "ress": 564,
    "Ġtiss": 8043,
    "ĠWalker": 37428,
    "ĠChirpy": 35909,
    "ĠCarton": 48951,
    "ĠLabrad": 22601,
    "Ġreigning": 45193,
    "900": 21436,
    "sers": 9871,
    "Ġvanishing": 40582,
    "Ġwearable": 12252,
    "felt": 15011,
    "ĠXX": 32358,
    "ĠEaters": 41918,
    "Ġiniti": 4943,
    "rowaves": 29945,
    "ĠBringing": 31382,
    "LT": 17333,
    "ricular": 12560,
    "ĠTwitch": 48096,
    "Adaptability": 42368,
    "Ġnames": 5040,
    "ĠFederal": 14377,
    "Ġusefulness": 22899,
    "onion": 46402,
    "Bar": 19527,
    "Ġcollisions": 19134,
    "Ġraz": 19097,
    "ĠAssistant": 7494,
    "Ġvoltage": 13629,
    "Ġvoting": 7830,
    "achel": 8577,
    "zzarella": 11635,
    "Ġbred": 29749,
    "Ġvoter": 14842,
    "ĠVacuum": 26345,
    "Ġzomb": 23785,
    "Ġdaydream": 34900,
    "asch": 46564,
    "Ġdecisively": 47398,
    "ĠParticipants": 20354,
    ";": 31,
    "Jul": 21443,
    "our": 516,
    "Ġlead": 915,
    "Ġsubfield": 19392,
    "Our": 5530,
    "roughts": 8196,
    "+------------------------------+": 45354,
    "Ġthree": 1169,
    "ended": 2853,
    "Ġsens": 2447,
    "Ġnurse": 20132,
    "otrophs": 45882,
    "SC": 37958,
    "Ġmultiplayer": 25472,
    "Ġnoticeable": 20337,
    "oton": 16803,
    "ĠHay": 26583,
    "ĠDemocratic": 12675,
    "Ġessentials": 15088,
    "illy": 10859,
    "Ġscurried": 37628,
    "Ġhous": 4718,
    "ĠWithdraw": 41122,
    "Ġprairies": 42573,
    "ĠTasmania": 49804,
    "Ġabnormalities": 15580,
    "Track": 29370,
    "ĠPocket": 46861,
    "zhou": 43075,
    "Ġbasket": 5106,
    "SN": 37959,
    "ĠKilmer": 42453,
    "Ġuncaring": 47938,
    "Kevin": 39938,
    "ĠKnown": 15891,
    "Ġelectrifying": 33744,
    "ĠSense": 33234,
    "ĠHenri": 31621,
    "Ġresetting": 25001,
    "ĠConvert": 14320,
    "ĠPang": 31977,
    "deep": 29161,
    "unct": 20161,
    "Ġgin": 46582,
    "ĠGaussian": 35903,
    "voc": 15157,
    "Ġht": 7001,
    "Ġexplanatory": 39519,
    "Ġdispute": 19484,
    "Ġatom": 4813,
    "Ġmethodology": 10879,
    "ĠPresidential": 17265,
    "Ġquarters": 17393,
    "Ġsequestration": 27524,
    "Ġdepth": 4383,
    "Boolean": 49244,
    "Entrepreneurs": 39858,
    "ĠEight": 24665,
    "Ġcriticize": 41888,
    "ĠASC": 16547,
    "Ġattitudes": 11864,
    "ĠDynamics": 37493,
    "ĠSMS": 36380,
    "Foreign": 25688,
    "Trax": 41796,
    "Ġmotive": 21255,
    "ĠLeveraging": 39453,
    "Ġtuition": 14988,
    "Ġranks": 15391,
    "Ġefficacy": 20225,
    "Ġrepeat": 6558,
    "ĠEmpathize": 41603,
    "Ġfizz": 27203,
    "Ġrevenue": 4319,
    "Ġembodies": 21297,
    "Ġsubtitle": 41617,
    "ENVOLIO": 45927,
    "you": 12874,
    "Ġguiding": 12588,
    "ĠShift": 22436,
    "Ġportrayed": 12198,
    "Ġfirst": 1023,
    "ifiable": 16081,
    "Ġsapien": 45559,
    "utonium": 40502,
    "Ġtemporary": 9330,
    "SSRIs": 48112,
    "esign": 43140,
    "Ġinbound": 46492,
    "ĠFranz": 22037,
    "Ġtracked": 24250,
    "ĠNiss": 36592,
    "Ġpro": 342,
    "Ġconsequently": 24835,
    "Ġdonned": 36842,
    "Ident": 46082,
    "Ġpursue": 7123,
    "Ġmeal": 3421,
    "Ġadministrators": 22536,
    "Ġpurifiers": 47378,
    "ĠTaylor": 19786,
    "Ġshape": 2991,
    "Ġshuffles": 49089,
    "Ġreborn": 35377,
    "Ġrejected": 20701,
    "athered": 6474,
    "ĠAlternative": 22551,
    "ĠPrincipia": 45721,
    "ĠManhat": 18889,
    "Ġshaky": 46878,
    "QR": 29657,
    "Ġstillness": 16687,
    "Ġunb": 11420,
    "RUE": 39830,
    "Ġbeaches": 10530,
    "Ġemperors": 47081,
    "ĠSenso": 33939,
    "ret": 1979,
    "ameter": 6080,
    "operation": 30835,
    "Ġvul": 36369,
    "ilanth": 17922,
    "ĠIntel": 19424,
    "Ġdys": 26477,
    "ĠCharts": 38678,
    "ĠDBMS": 24483,
    "craper": 23836,
    "nums": 10597,
    "Ġticking": 36184,
    "Ġvous": 31948,
    "average": 22680,
    "person": 7416,
    "Ġautomatically": 4961,
    "ĠAugust": 7696,
    "GANs": 31713,
    "ĠGovernments": 6349,
    "Medium": 34017,
    "Ġwoe": 46452,
    "ĠZoo": 23814,
    "ĠĠĠĠĠĠĠĠĠĠĠĠĠĠĠĠĠĠĠ": 23793,
    "Ġdatasets": 5971,
    "Ġindeed": 13847,
    "Ġmultiply": 8507,
    "ĠPersist": 18425,
    "ethod": 10770,
    "Ġextro": 29093,
    ")).": 22646,
    "apa": 36582,
    "predict": 18481,
    "ĠFiltration": 43568,
    "Pretend": 24488,
    "Ġvortex": 36372,
    "Ġbioenergy": 49071,
    "Ġcontent": 1251,
    "Ġcurated": 19106,
    "Ġobservations": 7859,
    "Ġbrittle": 31860,
    "Ġrhombus": 50020,
    "194": 41151,
    "Ġcylinders": 32818,
    "ĠOverall": 4033,
    "Ġexclusivity": 29148,
    ")]`": 48824,
    "ĠSociety": 15126,
    "Ġrepeats": 19708,
    "Ġconcerns": 2802,
    "âķĲâķĲâķĲâķĲâķĲâķĲâķĲâķĲâķĲâķĲâķĲâķĲâķĲâķĲâķĲâķĲ": 45650,
    "Ġgaz": 43270,
    "ĠAccidents": 35288,
    "Log": 19799,
    "Ġspreadsheet": 12122,
    "Ġbouquet": 17532,
    "Ġpromptly": 8412,
    "Its": 13349,
    "ĠPencil": 21171,
    "ĠAtmospheric": 31138,
    "ĠSpirit": 23973,
    "ademy": 13367,
    "ĠAppro": 14333,
    "Buzz": 29516,
    "ponents": 11239,
    "Ġ\"]": 43543,
    "ĠREST": 22742,
    "rule": 36290,
    "uber": 19817,
    "rition": 4732,
    "anu": 7361,
    "BC": 6004,
    "Ġdisinformation": 47049,
    "Ġremind": 3492,
    "Ġroman": 28386,
    "ĠGeneralization": 37320,
    "Ġbank": 5209,
    "Ġstr": 748,
    "Ġresistor": 26942,
    "ĠProgrammer": 35749,
    "oise": 11678,
    "Ġreconcile": 26326,
    "Analyze": 4015,
    "Ġcapitalist": 21311,
    "Ġlinearly": 24307,
    "ĠConfusion": 48291,
    "ĠPlantae": 41691,
    "Backpropagation": 45017,
    "ĠAsana": 25380,
    "Ġsympath": 49186,
    "Ġhemoglobin": 45306,
    "Ġhazel": 28434,
    "Ġskillful": 35303,
    "font": 24552,
    "Ġblankets": 16526,
    "ĠMacedonia": 49764,
    "ĠJulius": 20006,
    "ĠIreland": 18013,
    "market": 12612,
    "ĠRew": 19845,
    "Ġrepay": 14426,
    "Ġscr": 8755,
    "achment": 22332,
    "Ġ1945": 13298,
    "Ġinsects": 9032,
    "ĠCensus": 16987,
    "ĠStock": 13012,
    "Ġgraphic": 7783,
    "ĠSlightly": 43381,
    "lude": 5839,
    "Ġaccount": 1836,
    "avering": 9405,
    "icrosoft": 5039,
    "Ġhinges": 42634,
    "359": 32505,
    "Ġflooded": 20955,
    "Ġzo": 32286,
    "ĠRecursively": 30504,
    "Ġdialogue": 5515,
    "abetes": 5252,
    "ensed": 17013,
    "Impressionist": 42459,
    "Ġquerying": 22879,
    "Ġsharks": 22919,
    "ĠCrick": 39354,
    "Ġpatriotism": 49993,
    "ĠAirpods": 33803,
    "etchup": 26223,
    "CV": 36017,
    "ĠPalace": 13337,
    "Ġjingle": 25929,
    "Ġpizzeria": 39789,
    "squ": 10665,
    "Ġcyclones": 30401,
    "Ġchoreography": 37579,
    "tex": 12062,
    "usual": 46827,
    "69": 13452,
    "Ġrites": 46956,
    "odb": 40634,
    "program": 29203,
    "ifestyle": 20696,
    "Ġstalking": 49199,
    "Natural": 10066,
    "Professional": 34170,
    "ĠOwens": 48993,
    "Ġcomposing": 24689,
    "Ġfeature": 2627,
    "ĠHonestly": 49794,
    "Ġcorrelation": 10961,
    "Ġstool": 36339,
    "cot": 40229,
    "cribes": 38640,
    "Ġspanned": 29863,
    "pent": 29697,
    "ĠDesserts": 43587,
    "Ġtelecomm": 15394,
    "093": 50184,
    "'][": 32963,
    "ĠThere": 1824,
    "att": 7676,
    "Ġmatrices": 19638,
    "iastic": 42990,
    "pages": 21860,
    "ges": 2535,
    "Ġlabyrinth": 32953,
    "Ġ232": 32031,
    "Equation": 25666,
    "plain": 1503,
    "ĠDelaware": 33935,
    "|--------": 16948,
    "ĠHobbit": 23933,
    "Ġtraction": 17000,
    "ĠPlymouth": 46868,
    "Ġchem": 3021,
    "Ġmollusks": 35943,
    "ĠStatue": 14858,
    "persuasive": 48760,
    "ĠRabbit": 18204,
    "ĠDoes": 17389,
    "usions": 28022,
    "Ġstructure": 1704,
    "ĠTeemo": 47701,
    "Ġfirearms": 26084,
    "owered": 4334,
    "ĠSwap": 26118,
    "Ġliter": 3843,
    "Ġ75": 9644,
    "Ċĉĉĉ": 8533,
    "Ġ(.)": 40754,
    "candidates": 39939,
    "Ġought": 38133,
    "ĠGalaxy": 8676,
    "ĠZ": 3652,
    "Ġrecharging": 46546,
    "Ġro": 638,
    "iolet": 15990,
    "EPA": 30616,
    "ĠĠĠĠĠĠĠĠĠĠĠĠĠĠĠĠĠĠĠĠĠĠĠĠĠĠĠĠĠĠĠĠĠ": 41928,
    "Ġancestors": 19754,
    "ĠFeat": 28960,
    "ĠAbsolutely": 20395,
    "ĠSchools": 16733,
    "ĠNi": 12552,
    "Prior": 23073,
    "ĠLouis": 12039,
    "flowing": 44464,
    "Ġindicators": 9168,
    "Ġcomplete": 1950,
    "laze": 23832,
    "Ġslice": 6895,
    "Celebrating": 49671,
    "Ġfunction": 1167,
    "Ġreduces": 4463,
    "Ġconnector": 38813,
    ">(": 42782,
    "ĠMorrow": 46915,
    "Ġlo": 1433,
    "ĠDevice": 29413,
    "Ġconsider": 2109,
    "Ġguideline": 20938,
    "Ġcand": 3504,
    "ĠNginx": 43702,
    "Ġvaluables": 35142,
    "Personalize": 47869,
    "Ġsparks": 33276,
    "ĠKennedy": 12775,
    "`[": 42927,
    "ĠCulinary": 37771,
    "Main": 13352,
    "ĠYeah": 9553,
    "DK": 37904,
    "Ġdecremented": 44223,
    "ential": 754,
    "Ġassessing": 13036,
    "ĠPed": 27302,
    "vada": 21867,
    "Ġsuffered": 17900,
    "II": 4322,
    "ĠNetworks": 10838,
    "aneity": 44121,
    "ĠTob": 31911,
    "Ġrecru": 16444,
    "ĠHonda": 21947,
    "Coming": 36019,
    "Ġagreements": 15696,
    "Ġcoated": 15198,
    "ifs": 25852,
    "ĠSeparate": 48570,
    "ĠStudyX": 48924,
    "Ġaggregate": 32797,
    "agara": 34744,
    "arc": 8543,
    "Ġexamines": 16448,
    "ĠHotJar": 49123,
    "ypse": 32093,
    "PhoneNumber": 24862,
    "more": 4995,
    "ĠCould": 7086,
    "rim": 3310,
    "Ġsilence": 10504,
    "Ġlandline": 44013,
    "Ġties": 20109,
    "ĠEndurance": 41667,
    "Ġhashtags": 13773,
    "LSTM": 27869,
    "Ġcorpor": 6092,
    "DS": 29634,
    "ĠOwner": 34173,
    "Though": 17241,
    "Ġartfully": 40968,
    "Ġphonetics": 32767,
    "Ġissu": 26676,
    "Ġspear": 46871,
    "ĠMichigan": 18418,
    "Ġflex": 2815,
    "Ġtimeline": 6082,
    "ĠMitigation": 34041,
    "Ġqual": 4669,
    "Ġleaped": 25873,
    "ĠLim": 6317,
    "utf": 40500,
    "ĠleftSorted": 44183,
    "Ġthesaurus": 43114,
    "Beef": 48410,
    "Ġpreval": 9936,
    "Ġappease": 44380,
    "bridled": 39330,
    "Ġwines": 25807,
    "Ġenemies": 16089,
    "ĠAntigua": 41685,
    "ĠMockingbird": 11825,
    "object": 14928,
    "iba": 47033,
    "ĠRecruit": 30126,
    "ĠChef": 19686,
    "ribute": 14550,
    "Lay": 28748,
    "Ġencaps": 31049,
    "990": 44485,
    "Ġconsolidates": 42136,
    "Ġobsolete": 24501,
    "Highly": 35627,
    "ĠDiscrimination": 26166,
    "strptime": 38820,
    "ĠLandmark": 44923,
    "Ġfours": 46463,
    "ĠHR": 12160,
    "Ġaccepting": 14092,
    "Ġpresses": 25428,
    "Ġlemurs": 45235,
    "elled": 8575,
    "ĠParrot": 30267,
    "ĠOrch": 38924,
    "Ġcities": 3211,
    "Ġtast": 6921,
    "knight": 47898,
    "Ġmillions": 5350,
    "Ġlurked": 32771,
    "Jacques": 49676,
    "ĠMost": 8224,
    "iceps": 40787,
    "Hand": 25119,
    "Ġinterfering": 28526,
    "urability": 14486,
    "ĠEswatini": 45896,
    "umbs": 33255,
    "Ġprepared": 5296,
    "Ġcapacities": 26280,
    "Indian": 44634,
    "Ġurine": 32339,
    "Ġethanol": 33658,
    "ĠAdvocate": 30229,
    "Ġpermanent": 11216,
    "Ġcombat": 6513,
    "-|": 12206,
    "afia": 32361,
    "Ġpossessions": 14094,
    "ĠBelarus": 41632,
    "Ġsifting": 46421,
    "Off": 19259,
    "Ġstudios": 28163,
    "ney": 1940,
    "Ġmilit": 31110,
    "Ġinqu": 5004,
    "Ġdia": 46504,
    "},{": 39568,
    "startIndex": 37266,
    "ĠCyc": 28010,
    "Ġ1863": 22862,
    "Manage": 35574,
    "Cance": 46014,
    "Ġlocking": 30989,
    "``": 746,
    "Ġmessage": 2590,
    "ĠStorming": 42319,
    "atrain": 38126,
    "UE": 46185,
    "ĠGulf": 20186,
    "Ġprote": 1247,
    "ĠDiver": 40778,
    "Ġlarva": 33438,
    "enerative": 47133,
    "ito": 14760,
    "night": 8272,
    "ĠSl": 10863,
    "Ġterrorized": 35575,
    "ĠRolling": 27981,
    "Ġdoves": 40906,
    "ĠRefers": 41727,
    "ĠtimeSeries": 43658,
    "ĠStation": 14931,
    "Flashcard": 49793,
    "Ġstylistic": 35648,
    "member": 46295,
    "ighty": 21935,
    "Ġlingu": 11465,
    "Ġcards": 4608,
    "Medication": 45040,
    "1867": 47915,
    "Ġundertones": 31489,
    "Ġ1935": 36779,
    "ĠClerk": 32272,
    "Ġwintering": 41570,
    "ĠLa": 6881,
    "Ġante": 19847,
    "ĠBang": 9676,
    "rarch": 43027,
    "ĠKnock": 39400,
    "ĠVera": 29078,
    "ĠAlbert": 11870,
    "ichannel": 24701,
    "ĠAllerg": 39077,
    "ĠDollar": 22615,
    "efficients": 13151,
    "inals": 17564,
    "ĠGene": 26606,
    "ozygous": 45835,
    "Ġhouseplant": 41243,
    "Ġfrail": 44108,
    "CLV": 46025,
    "aria": 18504,
    "Ġstrawberries": 10513,
    "Ġmarsupial": 42495,
    "Count": 12129,
    "Ġmaximized": 41364,
    "Ġstruggled": 12490,
    "ĠSpielberg": 25726,
    "iring": 4076,
    "Scoops": 45785,
    "inj": 43094,
    "arming": 6265,
    "wall": 16946,
    "Ġdichot": 37801,
    "Ġprem": 6446,
    "Ġmoody": 38303,
    "laughs": 32888,
    "AT": 6258,
    "Ġmacro": 15878,
    "Ġconjug": 16732,
    "Ġmourn": 28643,
    "ĠTrail": 29209,
    "208": 47597,
    "Ġunve": 20534,
    "Summer": 16700,
    "or": 279,
    "Ġselective": 22871,
    "Ġdarting": 29762,
    "Organizational": 39807,
    "Ġenamel": 34711,
    "ĠEngine": 5864,
    "ĠGruff": 32911,
    "695": 34376,
    "ĠRy": 31917,
    "replace": 28822,
    "Ġblacksmith": 30536,
    "Ġdialects": 34272,
    "etically": 33176,
    "Ġrefer": 3464,
    "Ġexcitement": 4778,
    "Ġfamine": 28186,
    "Ġsurf": 29981,
    "hemat": 3181,
    "Ġhikes": 24609,
    "Ġthunderstorm": 14983,
    "isEmpty": 40417,
    "ĠPropos": 47455,
    "ĠGolgi": 36554,
    "1909": 48908,
    "Ġdestroyed": 11332,
    "Ġdisasters": 6242,
    "Ġwavefunction": 37174,
    "().__": 49311,
    "Ġduck": 19041,
    "Ġextract": 3509,
    "Ġargs": 17045,
    "Ġdevast": 6419,
    "Ġedit": 7233,
    "Ġbreaded": 48044,
    "ĠVeget": 9285,
    "Ġbarg": 24834,
    "so": 587,
    ")!)": 50169,
    "itude": 3098,
    "otlin": 40549,
    "romine": 43447,
    "orange": 15162,
    "Viol": 46194,
    "Ġorbiting": 20018,
    "izz": 3693,
    "Ġcravings": 21309,
    "Investment": 45251,
    "Ġliberties": 16358,
    "Ġoccupied": 18400,
    "Ġpacket": 19418,
    "Ġship": 7844,
    "efined": 11924,
    "aud": 11828,
    "ĠBraque": 39190,
    "Ġsplitting": 15118,
    "Ġhumble": 16840,
    "ĠEuro": 17884,
    "increase": 39656,
    "ationally": 22738,
    "Ġarchipelago": 42673,
    "357": 41680,
    "Ġconstructively": 41539,
    "Ġsketches": 25662,
    "[[": 23539,
    "Ġcaterpillar": 22616,
    "ĠFat": 16997,
    "Ġfajitas": 40425,
    "hig": 23546,
    "umbers": 12711,
    "Ġdont": 44079,
    "ĠMultiply": 25552,
    "vasive": 21868,
    "ĠÎ²": 45139,
    "Entertainment": 27675,
    "apple": 7039,
    "Ģ": 227,
    "itzer": 15756,
    "Ġretro": 23719,
    "Non": 18223,
    "ĠIntergovernmental": 32324,
    "ĠCommercial": 33694,
    "ĠGherardini": 40029,
    "Ġentang": 13407,
    "ĠNan": 47144,
    "Ġsly": 22258,
    "Ġ1951": 23380,
    "Ġmicroorganisms": 17088,
    "ambling": 22081,
    "Ġsublimation": 20898,
    "lapt": 46283,
    "Ġsolitude": 17214,
    "SIRI": 49798,
    "Ġprojecting": 47521,
    "ĠJoan": 37477,
    "Ġcompletes": 13434,
    "Julie": 31577,
    "Ġench": 7424,
    "ĠTexture": 32265,
    "ĠGeorge": 7078,
    "Ġhoping": 12113,
    "ĠBeauty": 21619,
    "forward": 9018,
    "Ġobstacle": 12109,
    "ĠLed": 30914,
    "Ġpumped": 30288,
    "Ġunderwent": 28159,
    "Ġfreckles": 50005,
    "Ġexcited": 5231,
    "Ġhouseplants": 41244,
    "Ġbinomials": 49442,
    "ĊĠĠĠĠĠĠĠĠĠĠĠĠĠĠĠĠĠĠĠĠĠĠĠĠ": 7513,
    "Ġadoption": 7541,
    "orter": 5518,
    "ergency": 36614,
    "bee": 15912,
    "iches": 11842,
    "Ġlie": 10977,
    "Ġlun": 11234,
    "ĠCONT": 48006,
    "ĠAlgeria": 39990,
    "Share": 22499,
    "Ġexch": 13084,
    "educated": 45680,
    "2": 22,
    "ĠModi": 41497,
    "whel": 24575,
    "Ġbookshelf": 18205,
    "Ġphilosophy": 8735,
    "Ġumbre": 10378,
    "native": 29694,
    "Ġqubits": 17822,
    "Ġhello": 14301,
    "contains": 47241,
    "roller": 17275,
    "ĠKeats": 34019,
    "ĠRosaceae": 37508,
    "ĠTaking": 7204,
    "Ġsensible": 44194,
    "Ġvessel": 26249,
    "Ġmediocre": 39969,
    "Ġaccommodating": 35402,
    "Ġtagging": 19164,
    "ĠSantiago": 21763,
    "ĠAnabel": 47431,
    "Ġfloated": 32513,
    "stress": 21134,
    "buster": 30660,
    "ffle": 32014,
    "ĠCoordinate": 23853,
    "ĠDia": 43577,
    "Ġwaffles": 29197,
    "ĠPavlova": 39892,
    "ĠAssociation": 14698,
    "Ġadherence": 21373,
    "ĠAutomating": 30228,
    "emba": 41841,
    "Excuse": 42260,
    "Tem": 16777,
    "ĠMagnetic": 28052,
    "ĠFeel": 24892,
    "ĠJude": 32768,
    "Ġpointer": 15080,
    "Ġeating": 3764,
    "ibrant": 21636,
    "quartile": 36384,
    "Ġes": 17768,
    "ushing": 25878,
    "ĠRapunzel": 49211,
    "Ġmusically": 47545,
    "ansion": 5725,
    "ĠMaine": 21330,
    "Ġconserved": 24174,
    "Ġiris": 39099,
    "bon": 1595,
    "Ġambitious": 11665,
    "Ġhambur": 25826,
    "Genre": 22577,
    "Automate": 45149,
    "Ġheavily": 6612,
    "Ġcontraction": 16147,
    "Ġbehaviors": 4858,
    "delivery": 45872,
    "Market": 11281,
    "Forrest": 41305,
    "Entrepreneurship": 49892,
    "department": 32610,
    "government": 17066,
    "PatientID": 49271,
    "Ġaccolades": 31662,
    "Ġsank": 31837,
    "rece": 40370,
    "Ġlands": 7821,
    "Ġperennial": 37707,
    "otonin": 23478,
    "ĠAfternoon": 23304,
    "isor": 36220,
    "too": 36168,
    "ĠActively": 20943,
    "Ġarm": 7395,
    "ĠSylv": 43377,
    "Ġoverview": 6418,
    "Ġevalu": 4609,
    "Tw": 5255,
    "Ġcapricious": 47494,
    "Ġli": 11684,
    "lung": 46284,
    "''": 12431,
    "doms": 24018,
    "Ġlikeness": 48080,
    "Ġlullaby": 21063,
    "ĠClose": 13627,
    "Goals": 37213,
    "Ġsnippets": 33917,
    "Ġfading": 21489,
    "Ġfund": 2843,
    "ĠChamps": 32148,
    "Ġdignity": 18449,
    "Ġstrides": 18830,
    "Krebs": 46091,
    "Ġstratosphere": 28610,
    "Ġreliable": 3760,
    "ĠBush": 24676,
    "Ġpretzel": 44925,
    "ĠFV": 40756,
    "Ar": 4844,
    "ixt": 13809,
    "ĠRobin": 27573,
    "Ġpredation": 37128,
    "ĠAppointment": 41223,
    "asma": 26492,
    "phone": 6743,
    "ĠMouse": 21531,
    "Ġcrou": 24054,
    "ĠSELECT": 20720,
    "Ġclosest": 8563,
    "onance": 27188,
    "Ġparliaments": 47532,
    "functional": 17302,
    "Ġspaces": 4721,
    "Ġporing": 43144,
    "bruary": 11746,
    "Vacation": 36080,
    "ort": 428,
    "Ġhide": 11464,
    "Ġcolleagues": 6017,
    "ĠElectrons": 35382,
    "irect": 6557,
    "Optima": 42231,
    "Ġmayo": 38607,
    "Warming": 31751,
    "ĠCalcium": 26787,
    "Ġsubplots": 47507,
    "ĠElect": 6102,
    "ows": 3346,
    "NARRATOR": 35981,
    "india": 43575,
    "Queen": 49956,
    "Ġtransferable": 25497,
    "Ġestablishes": 18358,
    "ĠLeave": 20937,
    "Mg": 34424,
    "Ġlobby": 37616,
    "-|--------": 26962,
    "162": 37014,
    "Ġacademically": 20712,
    "Ġpounds": 9185,
    "Ġcoursing": 45759,
    "ĠMeasuring": 18707,
    "electric": 9215,
    "amole": 17584,
    "Ġtrombone": 49849,
    "Ġsizing": 36195,
    "Ġnets": 23131,
    "Inside": 21973,
    "agle": 10631,
    "icelli": 38198,
    "Ġchromatography": 44900,
    "ogens": 25260,
    "Ġpartake": 47234,
    "Gonna": 40126,
    "Ġcongress": 43338,
    "Penguins": 46142,
    "ĠsautÃ©ed": 25025,
    "sta": 46510,
    "GUI": 27861,
    "ĠWait": 16639,
    "Ġnit": 7157,
    "Ġkios": 31995,
    "ĠAB": 13479,
    "Ġconception": 40559,
    "Ġcharacters": 2049,
    "ĠMechanical": 25672,
    "ĠProgra": 6362,
    "Ġassumed": 25577,
    "Ġwhales": 10580,
    "ĠMerkel": 35557,
    "Ġwayward": 36605,
    "ĠVerde": 33959,
    "ĠEnchanting": 37593,
    "July": 24487,
    "Ġ-----------------------": 49717,
    "pire": 38049,
    "ipedia": 13181,
    "Ġpatiently": 28294,
    "Ġwhist": 16246,
    "ĠUI": 24162,
    "ĠGANs": 24707,
    "ĠHenry": 10751,
    "ĠGib": 40800,
    "Ġthinks": 30754,
    "Ġuntreated": 29122,
    "Ġbreaker": 33571,
    "ĠNULL": 15964,
    "Ġdrivers": 7150,
    "Ġdiscrimination": 6127,
    "pling": 11768,
    "gom": 22238,
    "Ġtenacity": 48167,
    "gazing": 31782,
    "atherapy": 40383,
    "Abstract": 24978,
    "ĠRed": 2561,
    "Ġdribble": 45514,
    "Ġlatte": 36968,
    "515": 45976,
    "Ġepis": 13228,
    "Ġsandstone": 32373,
    "Ġamiss": 47213,
    "ĠVari": 10183,
    "nesty": 38043,
    "Ġinsensitive": 36732,
    "Sep": 19536,
    "mphas": 46296,
    "Ġbush": 15078,
    "ĠRis": 43304,
    "ĠPeas": 27545,
    "Ġenraged": 40623,
    "!\");": 31199,
    "ĠThemed": 33239,
    "ĠDiesel": 40779,
    "Ġspraw": 15636,
    "Ġnumer": 5455,
    "Ġefficiently": 3817,
    "Ġknack": 40931,
    "Ġprair": 32597,
    "Ġsubcategories": 31056,
    "ĠReserv": 46677,
    "Ġstarted": 3524,
    "Ġcircadian": 26740,
    "Ġsay": 3067,
    "Ġecstatic": 19405,
    "Ġoffice": 4253,
    "ĠTemporary": 37793,
    "Ġexceeding": 19939,
    "cessible": 24678,
    "Ġraind": 22369,
    "Ġinitializes": 20627,
    "ĠStrong": 7231,
    "Ġimperialism": 24933,
    "ĠScrum": 23292,
    "Ġpartnered": 43749,
    "nthesis": 43436,
    "ĠGuid": 28409,
    "Ġcriminals": 16930,
    "ĠArticles": 27551,
    "ĠNova": 45584,
    "ĠChromecast": 49655,
    "Ġdeductive": 27715,
    "Ġdefies": 43979,
    "Ġconson": 17617,
    "abad": 27276,
    "Ġuntold": 25384,
    "Ivo": 42861,
    "bis": 46206,
    ",âĢĿ": 10904,
    "hank": 17343,
    "ruskal": 44065,
    "Stayin": 41923,
    "Ġbusinessman": 18313,
    "Ġnefarious": 31966,
    "Vocabulary": 46195,
    "actose": 28950,
    "Ġcounterclockwise": 26149,
    "Ġjanitor": 42619,
    "Ġalgorithms": 1692,
    "Ġreception": 24812,
    "Ġredeem": 16571,
    "Ġrainwater": 16693,
    "ardonnay": 37697,
    "Ġtkinter": 35800,
    "Ġscalability": 10153,
    "ĠSource": 18786,
    "emotional": 40636,
    "Ġsucceeded": 21707,
    "Although": 14350,
    "Ġseverely": 17481,
    "Ġpassed": 4110,
    "ĠHeating": 36714,
    "ĠCell": 12072,
    "Ġeruption": 20678,
    "Ġaccommodate": 10157,
    "obello": 47203,
    "Ġhaiku": 8049,
    "475": 50188,
    "cooperative": 48157,
    "Ġmarvelous": 42167,
    "uous": 6853,
    "Ġbreads": 37045,
    "Demand": 37460,
    "ĠâĪĤ": 39215,
    "Ġkn": 798,
    "Ġproportional": 11330,
    "ethical": 14217,
    "Ġchocol": 23165,
    "Bang": 42797,
    "Ġintuitions": 41547,
    "Ġtangled": 33877,
    "Ġdrones": 14662,
    "Ġashes": 27994,
    "ĠHotels": 49174,
    "Ġfaced": 4818,
    "ĠPete": 48817,
    "ĠHumm": 19347,
    "anguage": 4737,
    "Ġcrises": 23768,
    "Ġinstructors": 15889,
    "ĠHu": 22776,
    "ĠSmartwatch": 39189,
    "Ġintegrations": 35230,
    "ĠCritical": 27007,
    "Ġrovers": 38566,
    "Pand": 33022,
    "Ã¤": 34529,
    "Ġinform": 692,
    "Ġbecame": 3401,
    "ĠMerge": 19870,
    "ĠResourceful": 35613,
    "Ġchoosing": 4584,
    "ĠMuseums": 41875,
    "Ġeuphoria": 35758,
    "ĠMC": 40699,
    "Ġstimulation": 22918,
    "Ġquarantines": 50029,
    "Ġtampered": 34534,
    "Pret": 21447,
    "asman": 36275,
    "Ġgrinds": 49045,
    "Ġstoring": 6413,
    "Ġhormone": 15261,
    "ĠGuadal": 32495,
    "Ġscream": 15495,
    "jing": 46270,
    "gifts": 46255,
    "Ġpreheat": 25320,
    "keeping": 14014,
    "Ġaggregator": 49243,
    "Produce": 13568,
    "Never": 16936,
    "1998": 33561,
    "Ġstationed": 48494,
    "Ġpersuasive": 6043,
    "Ġsayings": 44297,
    "Paper": 27139,
    "Building": 18724,
    "Ġsmartwatch": 22026,
    "Ġpig": 8045,
    "Ġsovereignty": 27771,
    "pie": 7224,
    "ĠCirc": 20813,
    "Ġvisas": 25970,
    "Ġmodified": 7623,
    "Ġdiagnostics": 22573,
    "Ġextruded": 35795,
    "ĠMood": 25897,
    "Ġcompound": 7029,
    "Ġrobbed": 48319,
    "Ġcurrencies": 16128,
    "ĠSpec": 7609,
    "Ġclinicians": 35521,
    "ĠEV": 31990,
    "zheim": 18000,
    "ĠDuck": 26591,
    "itives": 27194,
    "Ġfailures": 10951,
    "Americ": 10058,
    "ĠGalile": 14246,
    "ĠFris": 47790,
    "Ġglitch": 36712,
    "Ġtroubling": 48299,
    "Ġgem": 15045,
    "Mathematics": 37749,
    "Ġpoll": 1768,
    "ĠBreathtaking": 45405,
    "458": 28356,
    "Ġpess": 31849,
    "Request": 45382,
    "Ġla": 1272,
    "/`": 42763,
    "Ġnestled": 8417,
    "imir": 34616,
    "Ġtypeface": 25093,
    "Ġstreet": 5349,
    "Ġsalvation": 43975,
    "Simpl": 37218,
    "Ġreven": 3929,
    "Ġ9": 1740,
    "Ġoh": 11974,
    "oster": 13097,
    "Ġnutshell": 37168,
    "Ġinterconnectedness": 31319,
    "Ġexponents": 22543,
    "Ġexchanging": 17586,
    "Ġintersecting": 27713,
    "ĠAcknowledge": 27812,
    "btn": 31757,
    "Ġsubtype": 41618,
    "Ġspilling": 43454,
    "Ġincons": 9585,
    "ĠNic": 20847,
    "bn": 15911,
    "Ġenclosed": 18438,
    "Ġpotion": 18845,
    "Baseball": 42218,
    "Ġabroad": 16098,
    "eared": 17342,
    "Ġbuttered": 38583,
    "ĠUpdate": 12598,
    "ĠUnicorn": 49546,
    "chloric": 30570,
    "538": 37876,
    "ĠTest": 5194,
    "left": 7992,
    "Ġcomplementing": 44786,
    "wing": 8866,
    "ĠGogh": 11110,
    "Ġlocals": 15974,
    "vated": 40323,
    "Ġappeals": 17666,
    "hyd": 16152,
    "ields": 8036,
    "ĠShapeshifter": 34284,
    "Ġcontinue": 2698,
    "ĠChorus": 43886,
    "shadow": 47881,
    "MD": 37940,
    "Education": 11666,
    "Ġrepayment": 20383,
    "ragment": 34636,
    "iants": 17344,
    "oras": 21487,
    "Ġsummar": 5090,
    "____": 1931,
    "Ġrumors": 21404,
    "ĠDart": 28085,
    "Ġfault": 11268,
    "Ġtolls": 39541,
    "Ġtimely": 6116,
    "Update": 17509,
    "Ġlandf": 7902,
    "Ġ1932": 36780,
    "ĠProperly": 25589,
    "ĠMass": 11607,
    "ĠClustering": 24259,
    "Ġfootsteps": 18612,
    "adata": 24633,
    "agawa": 46895,
    "Ġcolours": 32082,
    "ĠSubtract": 18663,
    "Ġpreorder": 29022,
    "ĠFuture": 9516,
    "Ġnullptr": 21369,
    "oted": 12986,
    "rics": 3748,
    "Ġret": 1013,
    "Ġaggregated": 49241,
    "Ġintimately": 43599,
    "Ġhappenings": 28384,
    "ĠSkills": 11952,
    "Ġpret": 10226,
    "Ġrover": 38565,
    "Ġemanating": 27822,
    "Ġredefining": 45553,
    "Ġaggressively": 33903,
    "udge": 21169,
    "Ġunrivaled": 42719,
    "aways": 14616,
    "mys": 25782,
    "Ġdat": 15167,
    "Ġsoftly": 14659,
    "Ġpinching": 48938,
    "<": 32,
    "Ġcycles": 13034,
    "Ġarmrest": 39291,
    "parameter": 24258,
    "knowledge": 33900,
    "Ġgrant": 12645,
    "ĠCoriolis": 34343,
    "Ġtoilet": 18430,
    "Ġexcellent": 3674,
    "Ġlexical": 30434,
    "Ġiambic": 29616,
    "epend": 2517,
    "Ġwrapped": 15267,
    "uction": 9921,
    "Ġtox": 10469,
    "armament": 29964,
    "Prokaryotic": 47693,
    "Ġthylakoid": 34331,
    "Ġunfolds": 23209,
    "ĠTO": 27971,
    "Ġresort": 21544,
    "ĠGive": 11474,
    "Ġbrighten": 21649,
    "Ġgrotes": 48042,
    "Ġshouting": 26986,
    "ĠBrook": 20328,
    "Mary": 14493,
    "iration": 10979,
    "Ġcharming": 11989,
    "Ġcrew": 8207,
    "Nuclear": 29653,
    "Ġonset": 22287,
    "Ġ153": 32295,
    "ĠLush": 40821,
    "Ġexpenses": 3370,
    "Ġdeficit": 23262,
    "Ġdeterior": 24742,
    "=$": 27109,
    "stood": 23587,
    "Ġevolving": 7800,
    "lyn": 19306,
    "Ġthoroughly": 9494,
    "ĠVers": 10080,
    "Ġexposing": 21566,
    "ĠJews": 37510,
    "Ġsunbur": 41071,
    "winner": 38083,
    "Ġcaching": 21481,
    "Ġgu": 1416,
    "poor": 33584,
    "ĊĠĠĠĠĠĠĠĠĠĠ": 21245,
    "ĠContinu": 11804,
    "Ġunbiased": 17728,
    "Can": 6328,
    "alog": 13075,
    "ĠBard": 46923,
    "Ġplural": 12224,
    "once": 22701,
    "Ġbenevolent": 31372,
    "Ġdataset": 3161,
    "ivism": 21514,
    "tpl": 34512,
    "Ġworkable": 40901,
    "Ġfavors": 22717,
    "unctuation": 30485,
    "Ġvery": 2398,
    "Ġcapped": 34934,
    "Ġsuburbs": 37548,
    "ximity": 16920,
    "Ġcollaborators": 38905,
    "ĠNouns": 47150,
    "Ġpepper": 3440,
    "Ġaptitude": 30507,
    "Ġcontractors": 21701,
    "Ġscented": 40842,
    "Ġaccum": 8520,
    "visual": 48446,
    "dit": 1511,
    "Ġmetaphors": 15392,
    "orry": 25188,
    "ĠReset": 28883,
    "Ġclutter": 11359,
    "Study": 29417,
    "Ġthick": 4999,
    "Services": 20378,
    "uture": 1401,
    "Ġfulfil": 39110,
    "Ġheating": 6205,
    "Ġcontroversial": 13340,
    "ĠForms": 22953,
    "Ġconjuction": 44766,
    "XX": 12871,
    "ĠSensitivity": 49148,
    "ĠNasdaq": 35954,
    "avour": 38514,
    "Ġhiring": 7878,
    "Ġoperands": 32195,
    "Ġmilitarism": 35892,
    "pur": 29698,
    "ante": 7794,
    "Ġdeclaration": 18374,
    "ependent": 8766,
    "Alien": 48082,
    "Ġdramas": 36804,
    "apixel": 17203,
    "ĠDetection": 17114,
    "yll": 25170,
    "Ġdonating": 13960,
    "Ġknights": 17618,
    "ographs": 38865,
    "Gender": 18729,
    "Ġchimpanzees": 24118,
    "ĠNiger": 32071,
    "Ġreferendum": 35961,
    "Ġquit": 18297,
    "Ġmissions": 13580,
    "Ġlane": 17576,
    "Free": 18727,
    "Ġinstitution": 10719,
    "Ġpurchased": 8060,
    "}$`.": 39764,
    "ĠHomer": 37468,
    "Ġwildest": 21287,
    "Ġtarantula": 49791,
    "oen": 14752,
    "ilig": 31897,
    "cellent": 27238,
    "ingu": 5534,
    "Thr": 41232,
    "Ġendangers": 43920,
    "ophyll": 13429,
    "ĠEmbedded": 49627,
    "Ġcome": 1764,
    "ĠAngeles": 7220,
    "ianism": 28232,
    "ĠDen": 11299,
    "Ġforesee": 36763,
    "Ġinsul": 16849,
    "Ġcharging": 7801,
    "ĠBus": 23183,
    "ĠSymm": 48597,
    "\"}": 23060,
    "ĠAlps": 26703,
    "ered": 1222,
    "Ġharshly": 48588,
    "ĠCleanBot": 41733,
    "CCA": 36022,
    "Surface": 16912,
    "Ġinquiry": 14466,
    "uan": 28807,
    "Ġ168": 47952,
    "sterdam": 28334,
    "Ġsweetest": 32355,
    "Ġunnecessarily": 32497,
    "Ġexisting": 4092,
    "ĠDeclare": 35487,
    "Ġdiversified": 21730,
    "ĠSax": 29822,
    "Garfield": 37646,
    "__(": 13727,
    "ĠGhat": 36549,
    "Ġtectonics": 42178,
    "Kit": 31722,
    "ĠEll": 16634,
    "ĠSpe": 12404,
    "Ġanchored": 34110,
    "125": 17650,
    "ucose": 6928,
    "Ġattacking": 21323,
    "Ġnude": 36279,
    "ĠGravity": 28365,
    "Ġshelf": 11265,
    "Ġvariants": 21984,
    "Ġcorrective": 26032,
    "father": 9662,
    "Ġproof": 8708,
    "AE": 26367,
    "element": 16382,
    "AMZN": 44589,
    "Promote": 23007,
    "ĠVisiting": 26134,
    "ĠHitler": 21058,
    "outing": 36505,
    "ĠWukong": 50097,
    "idd": 2415,
    "ĠOthers": 15403,
    "Ġmonitoring": 4693,
    "Ġ16": 3443,
    "aguar": 21776,
    "Ġgardener": 22050,
    "Ġadvantage": 3940,
    "ĠGenetic": 25002,
    "Ġmain": 933,
    "ĠRamadan": 49221,
    "ĠChile": 17847,
    "ĠTreatment": 18413,
    "Ġdispenser": 39654,
    "âĮĭ": 30543,
    "Ġgrowth": 1559,
    "Ġwitty": 24333,
    "import": 5873,
    "Ġdistinction": 29087,
    "ĠHell": 43524,
    "dL": 42952,
    "edition": 31875,
    "Ġunchanged": 25059,
    "Ġlisteners": 18918,
    "Ġexperienced": 4973,
    "Ġdisputes": 16037,
    "best": 24544,
    "Ġdegra": 18611,
    "ĠTell": 20470,
    "Greetings": 18714,
    "Ġcab": 8965,
    "Ġchefs": 24361,
    "dense": 18740,
    "#/": 45933,
    "process": 13313,
    "Ġsyntactical": 45640,
    "prote": 44273,
    "Ġomelette": 9456,
    "Ġmitochondria": 16041,
    "Director": 42338,
    "Ways": 46198,
    "Ġavatars": 41034,
    "launch": 28361,
    "ĠDioph": 33867,
    "SE": 5649,
    "ably": 5007,
    "degree": 19403,
    "Ġreforestation": 14191,
    "aire": 19808,
    "Ġsword": 10145,
    "Leaving": 23895,
    "Ġsqlite": 39974,
    "Ġ70": 7591,
    "ĠDame": 33320,
    "Cherry": 42516,
    "strong": 11122,
    "ĠCoord": 28396,
    "ules": 11982,
    "tail": 12530,
    "defense": 22451,
    "Ġthinkers": 30110,
    "Ġexacerbate": 11891,
    "Ġrecipients": 31135,
    "Ġsizeof": 38886,
    "bezz": 44100,
    "Ġexpense": 13010,
    "Ġphilosophers": 18435,
    "depending": 32609,
    "hyl": 23791,
    "Ġferocious": 32595,
    "ĠArtificial": 4980,
    "Ġgrunt": 49131,
    "GCF": 34411,
    "metrics": 31326,
    "Ġtheatrical": 32811,
    "Ġcompanion": 11024,
    "Ġram": 24735,
    "ĠRepair": 32375,
    "except": 33585,
    "<!": 9706,
    "uitive": 23097,
    "beauty": 29152,
    "Ġdetours": 43793,
    "ĠElv": 33755,
    "Ġvig": 12289,
    "Ġagriculture": 4524,
    "Format": 14586,
    "ĠIssue": 28544,
    "Ġec": 2215,
    "Ġbark": 9000,
    "Ġyoungest": 18347,
    "Ġrunner": 22427,
    "ĠFilter": 35665,
    "Ġsupervised": 6897,
    "Ġwallet": 14940,
    "ĠSumm": 7315,
    "ĠLiter": 16271,
    "ĠBenin": 39183,
    "ester": 5003,
    "ĠDrives": 39134,
    "ĠCleopatra": 42258,
    "Ġconsiderations": 9164,
    "Ġfoodie": 47369,
    "Ġacceptor": 41454,
    "Ġsanitizing": 35703,
    "ĠSho": 26723,
    "ĠMIN": 28051,
    "ĠMarlon": 37080,
    "Ġmental": 2296,
    "pub": 38050,
    "density": 42961,
    "fields": 25154,
    "Ġcommunicators": 33479,
    "Ġcreates": 4398,
    "Ġeast": 8784,
    "ĠSage": 30810,
    "Ġhotdogs": 47870,
    "ĠParallelism": 49391,
    "Piano": 29656,
    "Ġconceal": 34155,
    "ĠDer": 34799,
    "ĠVisualizations": 48605,
    "ineteenth": 39691,
    "ĠToaster": 30066,
    "280": 40064,
    "netism": 27444,
    "Diamonds": 42657,
    "Ġunatt": 26615,
    "Ġcosmetic": 37310,
    "Ġsatellites": 22129,
    "ene": 5916,
    "ĠCorn": 19061,
    "ĠSÃ£o": 34692,
    "ĠParsley": 42465,
    "ĠHindus": 42005,
    "Ġfirms": 11909,
    "ĠWick": 30876,
    "ĠWhipped": 38832,
    "span": 44236,
    "ĠRainforests": 45252,
    "ĠRecord": 16871,
    "Jim": 27865,
    "Ġextends": 13856,
    "ĠIncentiv": 34124,
    "ĠAaron": 46705,
    "Ġoverlaps": 35554,
    "pect": 1191,
    "ĠKPIs": 27423,
    "ributing": 29118,
    "Ġpersuasion": 31246,
    "atering": 43717,
    "Ġcancelled": 26979,
    "Ġmuted": 22496,
    "Ġspun": 30854,
    "Ġgovernment": 2025,
    "Ġagitated": 34930,
    "ĠArcturus": 50120,
    "legged": 27217,
    "peer": 24851,
    "Ġfallacies": 23302,
    "Ġrushes": 31428,
    "Ġminiature": 24998,
    "Ġlandscaping": 30154,
    "ĠOranges": 17247,
    "ĠDiarrhea": 48454,
    "Ġresorts": 23192,
    "Ġlinens": 49289,
    "Ġresilience": 6564,
    "IO": 29646,
    "Ġcraved": 47979,
    "Ġbid": 21491,
    "Interrogative": 48618,
    "%'": 37861,
    "economy": 43616,
    "ĠSort": 10129,
    "Add": 5190,
    "rict": 9583,
    "Ġupbeat": 18059,
    "ĠPu": 16811,
    "Ġlicensed": 25561,
    "Ġcontaminates": 48645,
    "hall": 27902,
    "avor": 2157,
    "mbl": 41195,
    "roscience": 34222,
    "adine": 46726,
    "ĠMah": 12377,
    "Ġpatched": 40975,
    "Ġpenalize": 44698,
    "Ġcamarader": 23747,
    "Ġcommuting": 13096,
    "Show": 19167,
    "Ġcookies": 7980,
    "Ġpracticing": 7017,
    "gray": 38019,
    "polar": 39653,
    "Sparkle": 39921,
    "dos": 46228,
    "Ġpressures": 16689,
    "Ġreviewer": 29173,
    "ĠBlock": 30117,
    "Collaborative": 45383,
    "Ġsubside": 44469,
    "Ġreceptors": 27768,
    "Ġwebsite": 1310,
    "tension": 24566,
    "Ġhanging": 13256,
    "Ġ101": 13506,
    "Ġmarketed": 29062,
    "ĠConciseness": 37421,
    "Ġarts": 10874,
    "ĠÃĹâĢ¦": 44495,
    "ulch": 20481,
    "Ġnomads": 48814,
    "able": 489,
    "Ġ65": 11867,
    "Ġtentacles": 39398,
    "Ġshares": 8611,
    "Ġsudden": 5633,
    "`": 68,
    "Ġchip": 9794,
    "andering": 23185,
    "Ġ19": 1457,
    "Digital": 15148,
    "Ġment": 5751,
    "Ġanyway": 30945,
    "ĠFalcon": 32886,
    "Ġlego": 38873,
    "conservative": 49991,
    "Ġprevailing": 36969,
    "Ġharnessed": 14722,
    "Ġwirelessly": 27641,
    "ĠChatbot": 9625,
    "public": 9787,
    "ĠJurassic": 25327,
    "Audience": 35756,
    "Ġcontempl": 15774,
    "ustainable": 7543,
    "ĠBingo": 35682,
    "ĠMighty": 43497,
    "Ġescalate": 20366,
    "phe": 30685,
    "ĠProductive": 44523,
    "ĠPesto": 28698,
    "Ġhomeostasis": 30007,
    "urthermore": 5682,
    "ĠAdaptability": 11569,
    "Ġgorilla": 21143,
    "ĠPrinter": 24838,
    "urry": 40546,
    "Ġlunch": 6170,
    "Ġflower": 6094,
    "['": 9537,
    "ĠFake": 38472,
    "enda": 11766,
    "14159": 21813,
    "icine": 8747,
    "Ġever": 2731,
    "library": 46291,
    "Ġtransport": 1601,
    "alphan": 43167,
    "ĠFields": 43564,
    "Ġrobot": 2324,
    "Ġmeticulous": 23953,
    "Ġphonograph": 35692,
    "impanzees": 21055,
    "Ġdemeanor": 15902,
    "odo": 30841,
    "Ġatomic": 7496,
    "Ġstandalone": 19394,
    "Ġclinical": 14730,
    "Ġbeautifully": 12652,
    "Ġparach": 44021,
    "agged": 21936,
    "ĠGer": 30906,
    "ĠSa": 27278,
    "Ġbankrupt": 18648,
    "Ġmini": 11427,
    "SM": 33029,
    "Ġboiling": 8095,
    "ĠBoiling": 32747,
    "aris": 3363,
    "ĠRDBMS": 25844,
    "Ġpaddle": 23963,
    "Ġodor": 22131,
    "Ġpun": 3908,
    "Ġpull": 8217,
    "Carrots": 28468,
    "Ġundes": 30148,
    "ĠGet": 4367,
    "uff": 5381,
    "Ġendeavor": 20051,
    "Ġ\"${": 45392,
    "Ġunsolicited": 31683,
    "Ġnumbness": 39655,
    "Ġrephrase": 16966,
    "ectangle": 18798,
    "Ġalternatives": 7098,
    "2001": 23843,
    "Ġbread": 3864,
    "izards": 18539,
    "ppes": 46747,
    "Ġj": 585,
    "Ġsums": 19051,
    "ĠBark": 34758,
    "Ġsamples": 9151,
    "ostasis": 28126,
    "ĠByron": 41117,
    "ĠCyberbullying": 23424,
    "Ġfrater": 41902,
    "Ġnitrate": 26880,
    "Navig": 26397,
    "Ġresistance": 7619,
    "1921": 44045,
    "ĠSkippy": 31303,
    "Variable": 39750,
    "Working": 21093,
    "ĠClean": 7227,
    "Ġmob": 2314,
    "cer": 2744,
    "Ġtsunami": 22620,
    "Ġgravely": 45412,
    "Ġmassages": 44260,
    "Ġamid": 40912,
    "Ġencyclop": 26546,
    "Ġdeducting": 49603,
    "behaved": 42649,
    "Ġsister": 11973,
    "Refactor": 41997,
    "ĠShredded": 45856,
    "Ġsupermarkets": 24456,
    "ĠDostoevsky": 50099,
    "Ġvessels": 12679,
    "Ġquer": 40813,
    "Ġfateful": 40422,
    "$,": 42750,
    "Ġexclaimed": 31096,
    "ĠVirt": 41004,
    "Seek": 42905,
    "Ġwriter": 7903,
    "owned": 7558,
    "ih": 18742,
    "Ġtreacher": 11483,
    "ĠSue": 24112,
    "Ġant": 2917,
    "Ġdeliberately": 29534,
    "ĠInc": 2337,
    "union": 29868,
    "Stud": 10765,
    "Ġupright": 23677,
    "Ġbustling": 6934,
    "Ġcorals": 29989,
    "Ġspells": 16192,
    "ans": 539,
    "ĠClu": 43396,
    "star": 15041,
    "store": 10735,
    "-]+`:": 49179,
    "Ġconcer": 2648,
    "Ġmerged": 17948,
    "elible": 33220,
    "ĠMore": 5886,
    "âĸĪâĸĪ": 27064,
    "ĠNadu": 43701,
    "Ġcorrespon": 5031,
    "ĠSolstice": 44535,
    "Ġsilhou": 15393,
    "FF": 11033,
    "enty": 5243,
    "ĠBayesian": 24368,
    "nce": 897,
    "Ġrelocation": 32096,
    "according": 48565,
    "Ġlawyers": 26755,
    "Ġseparation": 14089,
    "Ġcloth": 9096,
    "Ġdiscounted": 14958,
    "Ġshipping": 6958,
    "ĠBrick": 34029,
    "hma": 14141,
    "ment": 387,
    "Week": 18475,
    "Ġinstalled": 8256,
    "transform": 42184,
    "Responsibilities": 35810,
    "Ġsodium": 11267,
    "Ġtrans": 812,
    "Ġsequel": 47853,
    "Ġchamele": 36399,
    "Ġastray": 39116,
    "Init": 23691,
    "gate": 29679,
    "ĠSeaborn": 44302,
    "icate": 4238,
    "ressively": 32034,
    "Ġfist": 24064,
    "ĠEmpowerment": 29532,
    "Ġinfilt": 25990,
    "+,": 45950,
    "ccupation": 19001,
    "ĠDeer": 30055,
    "bor": 10114,
    "Ġintegral": 8232,
    "ĠLiqu": 21554,
    "oyant": 47180,
    "111": 22036,
    "Ġdebut": 35191,
    "Ġevent": 1739,
    "vae": 40324,
    "Ġgenera": 41028,
    "typically": 49372,
    "Version": 36078,
    "ĉĠĠ": 46368,
    "Ġprimer": 32262,
    "rehensive": 21039,
    "Ġaiding": 19285,
    "ĠOpenWeatherMap": 49883,
    "Ġlaces": 46558,
    "Ġliable": 29779,
    "root": 8636,
    "ĠRefreshing": 32524,
    "Ġobese": 32266,
    "ĠPush": 15055,
    "Ġpreserved": 24795,
    "ĠPinch": 36435,
    "Ġlithium": 25828,
    "Ġrepetitive": 6904,
    "gia": 18478,
    "oval": 33520,
    "Ġsurgery": 17320,
    "Ġbuilds": 12948,
    "ĠVaries": 28179,
    "ider": 2777,
    "Ġ1972": 26013,
    "Ġschedule": 3511,
    "Ġswitching": 10955,
    "ĠYang": 22387,
    "iii": 45184,
    "Ġentrepreneurship": 13887,
    "ilitarism": 49879,
    "Ġshallow": 11470,
    "Ġscientific": 3362,
    "ĠJeopard": 41862,
    "Ġhopes": 13328,
    "ĠIls": 40475,
    "ĠRice": 13260,
    "ĠDylan": 28714,
    "Ġgenius": 19135,
    "ĠBir": 28056,
    "Ġrewards": 5632,
    "access": 38365,
    "ĠSacramento": 40002,
    "Representative": 27084,
    "Ġgoodwill": 36718,
    "Ġmarinara": 23946,
    "ĠEHRs": 24668,
    "ĠTibetan": 35804,
    "ĠHorses": 30873,
    "Ġstructural": 14874,
    "ĠEldorado": 30420,
    "ĠTuning": 27778,
    "Ġinhaling": 44565,
    "Years": 12686,
    "ĠValent": 39264,
    "Days": 16575,
    "ĠHy": 6598,
    "managed": 37010,
    "mia": 36142,
    "Ġ1200": 36862,
    "Ġinfused": 29088,
    "Ġspecialty": 24822,
    "Ġbaskets": 24447,
    "Ġilleg": 11278,
    "Ġflammable": 33448,
    "Ġrespectfully": 22444,
    "Ġwither": 25191,
    "Ġupheld": 43662,
    "rily": 23555,
    "Protagonist": 42542,
    "Ġbankruptcy": 28616,
    "Ġdeprived": 35694,
    "Ġmovies": 4356,
    "ĠSahel": 39851,
    "Ġgrated": 13409,
    "Ġclink": 47016,
    "oche": 43438,
    "Translate": 7475,
    "Ġstrawberry": 15415,
    "ĠCaprese": 29336,
    "Peaceful": 21045,
    "thening": 26739,
    "ĠPure": 31976,
    "Ġadmission": 25269,
    "Ġinterchangeable": 30408,
    "ĠOpening": 27711,
    "Work": 18474,
    "Ġtangents": 44703,
    "Ġtooth": 7526,
    "cted": 46497,
    "raines": 46623,
    "ĠGDP": 7621,
    "ĠCotton": 40617,
    "ĠTechnical": 12586,
    "Ġstore": 1330,
    "ĠfranÃ§": 42703,
    "UX": 22675,
    "trapping": 35280,
    "Ġrealize": 11624,
    "ĠGherard": 38526,
    "Ġpossibilities": 5830,
    "ï¼": 38099,
    "ĠPlaintiff": 35062,
    "ĠRoald": 37120,
    "Ġaddiction": 14654,
    "Ġfluctuations": 13777,
    "Ġflyers": 26161,
    "Ro": 21448,
    "ĠPart": 4436,
    "Ġstruct": 13194,
    "Later": 34421,
    "Ġhangs": 48896,
    "Ġcove": 31844,
    "ĠEntreprene": 15576,
    "Ġearners": 33586,
    "ĠMerry": 48803,
    "enery": 8195,
    "ĠAcquired": 42337,
    "Ġconscious": 7320,
    "Ġdiscriminated": 48187,
    "ĠChapter": 29982,
    "Ġshades": 7923,
    "llable": 47185,
    "Ġspeedy": 23773,
    "anas": 6184,
    "Ġpursued": 20300,
    "ĠOSI": 37469,
    "Ġworkflow": 10228,
    "404": 48212,
    "ĠLily": 4814,
    "¬": 110,
    "Preprocessing": 41788,
    "Ġmourning": 35776,
    "ĠPo": 10383,
    "ĠSupports": 27584,
    "Rot": 42900,
    "veys": 4460,
    "Ġparrot": 19650,
    "ĠIthaca": 50064,
    "ilater": 43265,
    "ĠNeodymium": 44268,
    "attack": 29357,
    "Ġsubnet": 33532,
    "ĠBoston": 10569,
    "ĠTheodor": 46755,
    "ĠGeneral": 9970,
    "uxe": 44475,
    "ĠVariables": 33955,
    "skilled": 29425,
    "Ġstates": 3202,
    "ĠRush": 27258,
    "ĠAdvantage": 38672,
    "convert": 29954,
    "Ġendangered": 7008,
    "ulence": 38272,
    "Ġorganizes": 27416,
    "Ġcommemorate": 42468,
    "Ġassume": 14804,
    "ankton": 36798,
    "olar": 38234,
    "ĠIntegrated": 28507,
    "jay": 40268,
    "ĠFle": 17603,
    "Ġaversion": 43930,
    "ĠCOVID": 4878,
    "ĠMathemat": 15410,
    "ĠChanel": 45742,
    "ĠRobots": 9907,
    "Ġbourgeoisie": 50149,
    "PR": 26399,
    "Ġstart": 1153,
    "ĠSimplicity": 29561,
    "mAh": 31791,
    "Charge": 41664,
    "ADP": 50231,
    "ĠOccur": 43641,
    "inance": 21874,
    "ĠBased": 7507,
    "Ġplatforms": 2754,
    "ĠNavigating": 32627,
    "Ġhardship": 18598,
    "Hindu": 42854,
    "ĠLively": 40822,
    "Ġpatch": 17840,
    "Ġdisproportionately": 20390,
    ")<": 37863,
    "Ġthereby": 7049,
    "43": 9744,
    "ander": 8432,
    "Ġlarynx": 40494,
    "*****": 36544,
    "Ġsalted": 26000,
    "afening": 47939,
    "monthly": 37406,
    "Ġblown": 29356,
    "Ġshoots": 28498,
    "Ġunwinding": 41920,
    "Ġpermission": 15074,
    "Ġchoppy": 36797,
    "Ġverte": 41437,
    "ĠCapac": 44680,
    "atial": 43127,
    "ĠRank": 27979,
    "agus": 16255,
    "Ġcracking": 20617,
    "illin": 18799,
    "olkien": 21023,
    "Ġovermix": 34870,
    "ecc": 21550,
    "ĠImmune": 35552,
    "Ġprescribing": 47585,
    "Ġsharp": 5591,
    "Ġfertilization": 26204,
    "everages": 20882,
    "Responsive": 35809,
    "ĠBLE": 36469,
    "Ġeas": 1017,
    "Cassie": 42690,
    "omination": 43224,
    "vern": 1425,
    "Ġchallenged": 21611,
    "ANSW": 39252,
    "Ġabandon": 22128,
    "scious": 10346,
    "ĠNietzsche": 25098,
    "earchers": 18308,
    "Ġswirling": 16471,
    "secutive": 9529,
    "esar": 10425,
    "flavor": 41713,
    "ĠAtticus": 18652,
    "Econom": 14254,
    "Ġgrapes": 16280,
    "Ġtreaty": 19402,
    "ĠSisters": 40591,
    "Eff": 40114,
    "ĠToll": 38241,
    "Ġaloof": 27275,
    "usk": 23168,
    "arketing": 36661,
    "ĠGucci": 47075,
    "MIT": 36055,
    "Street": 38901,
    "Ġactivist": 14938,
    "rix": 4564,
    "Ġmarry": 19407,
    "Ġupheavals": 45378,
    "helon": 36948,
    "Nigeria": 37950,
    "Ġambiguous": 23006,
    "Ġdim": 8388,
    "Ġorn": 21908,
    "Ġvarieties": 15970,
    "ctu": 22724,
    "Ġrace": 5238,
    "178": 47974,
    "ĠAer": 28888,
    "Ġgraduation": 19441,
    "ĠBuckingham": 30594,
    "ĠLGBT": 19089,
    "ĠInsider": 44847,
    "ĠChardonnay": 38680,
    "lick": 5699,
    "Ġneg": 1729,
    "ĠĠĠĠ": 409,
    "Ġperfectly": 9808,
    "Costs": 42269,
    "Ġdamp": 15997,
    "Ġdeserves": 18561,
    "Ġmusc": 4205,
    "romatic": 28028,
    "ĠReg": 2810,
    "2006": 35329,
    "Ġcultivating": 26020,
    "Ġpleasure": 9323,
    "Ġtweaks": 45001,
    "Ġrewrites": 46547,
    "ĠBix": 40720,
    "Ġappeared": 11017,
    "setter": 38808,
    "ennec": 45451,
    "Ġ00": 26451,
    "ĠKindle": 29984,
    "ication": 2400,
    "Ġveter": 19635,
    "Ġvigor": 39479,
    "stage": 43202,
    "pressure": 19508,
    "NARR": 35256,
    "Ġreduce": 937,
    "DA": 13674,
    "aragua": 38182,
    "Ġlords": 40490,
    "Home": 13905,
    "Ġinquir": 5590,
    "Ġreservoirs": 29522,
    "ĠKeeper": 47391,
    "Ġinquiring": 29280,
    "ĠAdopt": 20562,
    "Ġseen": 2873,
    "Ġpronounced": 18666,
    "Ġluc": 24078,
    "ĠMax": 4853,
    "ĠExercise": 6341,
    "ĠAlexandria": 45746,
    "Ġnegative": 1993,
    "lid": 40275,
    "Ġjohnsmith": 33356,
    "ymakers": 48170,
    "ĠUSS": 31131,
    "ĠYoutube": 43844,
    "urgent": 38266,
    "Susan": 34332,
    "Ġstrand": 12183,
    "life": 2911,
    "Ġreferee": 29560,
    "Resp": 46150,
    "ĠPictionary": 37356,
    "ĠCollection": 14080,
    "fs": 19015,
    "ĠSoftware": 6858,
    "Products": 23863,
    "itting": 11907,
    "Ġunderneath": 17837,
    "Ġrights": 3094,
    "Ġtruck": 17854,
    "ĠFabric": 29908,
    "Ġsimilarities": 5807,
    "ĠMacbeth": 20982,
    "erved": 10993,
    "ĠNetw": 5220,
    "Ġsoared": 18835,
    "Ġraises": 10389,
    "Ġphytoplankton": 39837,
    "ction": 326,
    "ĠChild": 20876,
    "Ġworrying": 18669,
    "vant": 1648,
    "Ġbulge": 28341,
    "lease": 2230,
    "ĠReminders": 39738,
    "Ġresponse": 2670,
    "Ġunderestimate": 28640,
    "Ġbalances": 14207,
    "ĠFree": 14523,
    "776": 50206,
    "Ġimprinting": 49134,
    "obos": 43724,
    "sugar": 24033,
    "lowing": 25250,
    "istical": 5023,
    "Ġhabit": 3101,
    "ĠTrace": 38969,
    "Son": 28763,
    "Solution": 18470,
    "rus": 1763,
    "rs": 5356,
    "Ġleads": 4329,
    "Ġyou": 354,
    "Ġingredients": 2405,
    "674": 30244,
    "ĠDespair": 48138,
    "From": 4248,
    "Ġcre": 3050,
    "hetics": 29229,
    "ĠMozzarella": 30252,
    "iazz": 43723,
    "Ġresults": 1923,
    "ĠRow": 10214,
    "Ġpist": 23575,
    "hog": 23547,
    "Ġdevice": 2689,
    "urable": 6515,
    "ĠJersey": 20860,
    "Ġseatbelts": 45926,
    "amed": 2385,
    "Ġil": 10973,
    "aught": 5561,
    "ike": 663,
    "carousel": 44769,
    "ĠSmooth": 15831,
    "makers": 12969,
    "oneyc": 47077,
    "Ocean": 19534,
    "inge": 21482,
    "Owl": 49630,
    "eah": 8155,
    "Ġportals": 30085,
    "Ġwhole": 3000,
    "Ġcompass": 5777,
    "ĠAmelia": 21603,
    "mant": 27166,
    "âĢĿ)": 38885,
    "igation": 24098,
    "Ġreconstruction": 27691,
    "ĠExam": 31065,
    "Ġcurrently": 5493,
    "-------|": 30974,
    "---": 5197,
    "filled": 16383,
    "ognitive": 4242,
    "Ġuptime": 32837,
    "Ġinfinite": 11890,
    "Ġelectroly": 26319,
    "ĠPets": 14916,
    "Ġpregnant": 35778,
    "ĠNation": 25314,
    "Ġjuiced": 37059,
    "Ġanything": 3533,
    "Hear": 46072,
    "Ġblazed": 40949,
    "esserts": 30797,
    "ĠSandy": 32662,
    "Ġfootnote": 33641,
    "rats": 17560,
    "Ġhare": 17589,
    "ĠAssessment": 20704,
    "Woman": 36085,
    "Ġrental": 11805,
    "garde": 30569,
    "Ġmedals": 23225,
    "Penguin": 46143,
    "In": 706,
    "iterate": 24058,
    "Ġhonor": 8836,
    "Ġomelet": 8738,
    "hors": 8569,
    "Ġmeager": 46994,
    "Recent": 19710,
    "Ġresil": 5311,
    "ĠJonathan": 42357,
    "othe": 13590,
    "esty": 11691,
    "Ġstain": 9511,
    "Ġminds": 10046,
    "ĠSchool": 8300,
    "Ġcontrols": 7663,
    "aust": 7061,
    "ĠCode": 9793,
    "anitary": 43164,
    "Ġexc": 1944,
    "ĠFirstly": 11645,
    "ĠEn": 1109,
    "Ġfee": 13385,
    "accurate": 46837,
    "Ġcontinu": 2380,
    "ĠCommerce": 29232,
    "ĠPlants": 13622,
    "ley": 4060,
    "ĠInterns": 38971,
    "ĠPul": 25252,
    "vertex": 43340,
    "Duration": 29635,
    "Ġspacecraft": 10593,
    "ĠProte": 6747,
    "Ġconsists": 5322,
    "Ġdormant": 28602,
    "RES": 46156,
    "Ġcommunity": 2421,
    "ooper": 48457,
    "erals": 6331,
    "Ġvacations": 19951,
    "Ġimmerse": 13963,
    "vehicle": 38209,
    "ĠFinc": 43561,
    "Ġspat": 9514,
    "ek": 31772,
    "ĠOvercoming": 27582,
    "Ġrectangle": 6902,
    "hn": 29683,
    "1853": 47918,
    "218": 47892,
    "PAN": 17336,
    "Ġsold": 7108,
    "Ġrou": 2214,
    "powered": 4727,
    "Ġexcluded": 31095,
    "Ġplaces": 4486,
    "Ġsupporters": 23733,
    "Ġwore": 19036,
    "Ġconsonants": 30454,
    "plete": 6010,
    "alation": 26470,
    "Gent": 46063,
    "Ġaids": 9081,
    "Sketch": 40193,
    "Loyalty": 34423,
    "Tranquil": 49632,
    "ĠBBQ": 22199,
    "Ġcollages": 47641,
    "Ġfallacious": 41343,
    "Ġreacting": 33871,
    "Ġty": 38102,
    "met": 7309,
    "Ġtempest": 25003,
    "Ġgarnered": 26915,
    "Ġgauge": 14993,
    "Ġinternally": 33665,
    "knit": 19955,
    "aten": 15028,
    "adin": 46724,
    "Width": 36086,
    "Join": 18465,
    "Ġâī¤": 18676,
    "Ġfoam": 17314,
    "ĠAp": 10677,
    "Ġseized": 28920,
    "Ġintangible": 27349,
    "ĠKang": 47383,
    "001": 29028,
    "Ġapparitions": 45425,
    "llence": 13605,
    "Shorten": 32882,
    "Ġfrown": 28832,
    "Ġanalogies": 30230,
    "Modified": 41845,
    "iti": 26460,
    "Ġbromeliads": 46479,
    "cium": 10067,
    "Ġproud": 7743,
    "Ġobserving": 14351,
    "avoid": 34817,
    "Ġpersonality": 6428,
    "ff": 494,
    "ĠUpgrade": 19174,
    "ĠAthens": 19417,
    "itus": 34559,
    "Ġgle": 19572,
    "ĠStove": 36643,
    "Ġnode": 4234,
    "super": 24848,
    "Ġfurthe": 32469,
    "riot": 33242,
    "ĠHippopotamus": 39728,
    "Ġlaw": 2981,
    "rustrated": 39911,
    "Ġheatwaves": 11189,
    "Ġarchiving": 44314,
    "cribed": 17625,
    "ĠLions": 28986,
    "obbing": 39772,
    "Ġcomfort": 2465,
    "ĠBeautiful": 17237,
    "Ġwarmly": 31053,
    "Ġenabling": 4217,
    "Ġmotiv": 2666,
    "ensation": 23217,
    "Ġconference": 10488,
    "Ġgrill": 11007,
    "Ġpeak": 7412,
    "Ġautom": 1841,
    "Ġscience": 2525,
    "ĠAnalog": 34978,
    "Ġapothem": 47907,
    "Ġstrategizing": 44007,
    "Ġcrushes": 42179,
    "igoths": 46653,
    "opes": 11468,
    "ĠSaut": 28896,
    "coffee": 37996,
    "ashes": 10471,
    "Soup": 23075,
    "Ġbreeding": 11430,
    "ogram": 12544,
    "resh": 2070,
    "Ġcoal": 8913,
    "Ġmanga": 45296,
    "ĠArabia": 21029,
    "ĠDisplay": 11444,
    "Ġposition": 2635,
    "Ġindent": 36624,
    "Ġdeliberation": 42206,
    "Jaws": 46089,
    "ĠCombustion": 49353,
    "ĠMeg": 35310,
    "Ġinfringing": 43923,
    "rina": 38057,
    "Ġrecycle": 6912,
    "ĠMonroe": 32308,
    ")':": 50167,
    "Ġvases": 36371,
    "ĠGeoffrey": 35307,
    "ĠTrees": 7027,
    "Ġgen": 2110,
    "Ġwrong": 4954,
    "Ġtackling": 18946,
    "Ġmuzzle": 38171,
    "Ġunkempt": 40852,
    "Ġprotons": 12410,
    "load": 4157,
    "Ġcog": 43135,
    "Ġblazer": 29958,
    "Fall": 46051,
    "ĠGrow": 9836,
    "Ġ`</": 38646,
    "Ġfurn": 21882,
    "nections": 24151,
    "Ġcascading": 20709,
    "Ġparallelism": 31339,
    "gles": 20760,
    "ĠHobbes": 45205,
    "Ġcinem": 10957,
    "ĠFierce": 40766,
    "Size": 18735,
    "InDate": 34876,
    "ĠRet": 4863,
    "(*": 45943,
    "ĠSpecies": 18944,
    "Ġdishwashers": 28560,
    "bending": 42933,
    "bits": 13909,
    "Fantasy": 42842,
    "Ġde": 400,
    "ĠLibraries": 23923,
    "comp": 9785,
    "les": 634,
    "ĠFutura": 45606,
    "Ġpromote": 2546,
    "ĠIdentification": 31503,
    "Ġ.": 5796,
    "ĠSmaug": 44255,
    "ĉĠĠĠĠĠĠĠ": 43082,
    "thon": 40620,
    "âľħ": 49905,
    "Ġorderly": 32188,
    "ĠIsa": 14693,
    "Ġassesses": 32384,
    "Ġreincarnation": 49965,
    "Ġregulator": 48712,
    "Ġsilent": 11721,
    "acchar": 29849,
    "Ġprestigious": 14607,
    "Visiting": 49042,
    "ĠMultiple": 22112,
    "Ġbetray": 18446,
    "Ġcontrasts": 19421,
    "ĠVie": 43873,
    "permutation": 49689,
    "Ġinterns": 13005,
    "avail": 21957,
    "Ġpredefined": 15111,
    "ĠNitrogen": 20735,
    "Ġfade": 12145,
    "Ġeld": 7633,
    "Ġgetaway": 19636,
    "alled": 7409,
    "Ġidentifier": 15977,
    "Ġwonderful": 7885,
    "ĠReconstruction": 37715,
    "Ġbriefing": 48206,
    "ajamas": 38788,
    "Ġencountered": 8809,
    "ĠJahan": 37848,
    "ĠChoose": 3427,
    "erie": 12696,
    "ĠManufact": 15228,
    "ĠKh": 15200,
    "ĠShuffle": 28263,
    "Ġcucumbers": 21019,
    "Ġnorm": 4035,
    "Ġhormones": 10721,
    "ĠJim": 19890,
    "Ġemptying": 39151,
    "=${": 49526,
    "Ġcarrots": 7090,
    "85": 8811,
    "Ġnominee": 48815,
    "Ġrevitalize": 39805,
    "Shot": 39172,
    "ĠOracle": 24709,
    "artheid": 40698,
    "Ġunfairly": 24413,
    "EM": 12354,
    "ĠLinear": 11821,
    "ĠSurrounding": 37506,
    "ĠNar": 40868,
    "body": 5507,
    "seared": 46524,
    "STM": 20338,
    "Ġmerg": 11841,
    "Ġammon": 24176,
    "Ġdiagnosis": 5769,
    "Reformulate": 23055,
    "______": 30056,
    "uck": 3568,
    "Apollo": 42313,
    "Ġeditors": 19907,
    "Ġpremature": 21706,
    "listen": 33733,
    "Animation": 35040,
    "Ġavenue": 26307,
    "Volunteerism": 49893,
    "Ġcylind": 19744,
    "Ġ1995": 22510,
    "4321": 48704,
    "illes": 13829,
    "Ġvocab": 44582,
    "Ġhusband": 14873,
    "Ġslammed": 41174,
    "controller": 28425,
    "Ġhamsters": 44945,
    "Ġuninsured": 34854,
    "Ġproposed": 7174,
    "Ġbins": 16235,
    "visitor": 44675,
    "Make": 3818,
    "Ġpaints": 15209,
    "ocial": 2891,
    "ĠGuadalupe": 37790,
    "ĠPilots": 49348,
    "Ġaligning": 25506,
    "Tracking": 48585,
    "absorbing": 42746,
    "ĠTEXT": 27254,
    "ĠSwimming": 17679,
    "Ġcardiovascular": 7327,
    "daq": 35651,
    "ĠExploratory": 41623,
    "roit": 33156,
    "roken": 31881,
    "ĠMilitary": 23645,
    "Ġvera": 33724,
    "ĠCharter": 26136,
    "Ġmathematician": 12583,
    "ĠShot": 35103,
    "Ġhor": 3414,
    "Install": 37533,
    "Ġdispensing": 45299,
    "aly": 2218,
    "ĠWindow": 48348,
    "ĠBeyoncÃ©": 42568,
    "Ġharrowing": 41503,
    "ĠDedicated": 37654,
    "Crit": 15736,
    "Ġneatly": 21392,
    "Ġoutbreaks": 20031,
    "ĠAquarion": 42243,
    "ooping": 48458,
    "acos": 36411,
    "ĠAr": 2060,
    "Ġcultivate": 22016,
    "Ġislands": 14710,
    "Ġvet": 38702,
    "Ġconserving": 10227,
    "Ġabstract": 6762,
    "Ġprom": 1106,
    "Ġpriority": 8591,
    "Ġcleaning": 4309,
    "Ġjournalism": 15556,
    "Ġchamomile": 41984,
    "Ġcaloric": 20035,
    "Ġsucceeds": 41639,
    "Ġshellfish": 30278,
    "osers": 26557,
    "James": 19531,
    "ĠWishes": 43550,
    "Ġmanned": 36539,
    "Ġreorganized": 43229,
    "Ġdigest": 8951,
    "Ġhashing": 29919,
    "Monday": 26215,
    "Ġmerge": 12511,
    "Ġoutermost": 21200,
    "ĠINCORRECT": 49334,
    "Parallel": 32538,
    "Ġlemon": 6151,
    "ĠApart": 22748,
    "cerpt": 26743,
    "Ġsymbolize": 18122,
    "Common": 31387,
    "abeled": 19056,
    "Ġoffshore": 33419,
    "Ġmodulo": 19513,
    "ĠTylenol": 42706,
    "bies": 8601,
    "Destination": 30612,
    "ĠPhysiology": 45748,
    "ĠWishing": 40747,
    "ĠMichelin": 31485,
    "Ġrevolution": 3063,
    "Ġtrotted": 49906,
    "ĠJen": 24731,
    "Ġsuicide": 24632,
    "Ġrationale": 32691,
    "Ġflooring": 32514,
    "Ġslopes": 17642,
    "ugin": 36171,
    "ĠLondon": 6741,
    "Ġoatmeal": 18005,
    "entially": 11368,
    "Ġwerewolf": 43889,
    "Ġpowerpoint": 43865,
    "Ġanonym": 14773,
    "Ġpricing": 6179,
    "Ġmistakenly": 32872,
    "ĠWarming": 18047,
    "ĠChamp": 23243,
    "friends": 47782,
    "Ġinforming": 21971,
    "Ġsub": 1480,
    "ĠResolution": 20804,
    "ĠIncrement": 35224,
    "ĠWatson": 17387,
    "Ġcollaborate": 6106,
    "Premise": 25564,
    "Ġsway": 8898,
    "Ġpajamas": 43150,
    "4096": 44520,
    "Ġstamina": 27082,
    "ĠPolit": 37138,
    "ĠMountains": 11564,
    "ĠOwen": 39557,
    "Ġface": 2327,
    "Ġpawns": 25686,
    "ĠMayella": 37091,
    "Ġblurring": 40950,
    "Ġcages": 30717,
    "vana": 28809,
    "Ġpredicts": 16860,
    ":\\.[": 45996,
    "253": 41436,
    "seq": 43212,
    "inflammatory": 17747,
    "ĠShibuya": 34357,
    "veled": 6879,
    "Ġempowered": 18126,
    "Ġ1492": 27556,
    "Ġtireless": 9788,
    "ĠAmong": 18090,
    "Ġtemperatures": 3518,
    "ĠPixel": 15634,
    "Ġsort": 2844,
    "ĠBerkeley": 26872,
    "ĠLarger": 32863,
    "ĠVivaX": 50108,
    "Ġ1952": 37251,
    "ompassing": 33921,
    "ĠRapid": 23949,
    "Visual": 23465,
    "ogue": 25259,
    "Ġwhit": 19321,
    "Ġelbow": 17238,
    "ĠGujarat": 49884,
    "iliters": 28353,
    "ĠDrake": 33958,
    "EDA": 48365,
    "Think": 11191,
    "HL": 30628,
    "Ġupset": 14048,
    "ĠMosc": 23644,
    "Ġimage": 2559,
    "ivious": 31943,
    "ĠAna": 29098,
    "encies": 5036,
    "Ġcomedic": 26297,
    "ĠĊĠĠĠĠĠĠĠ": 12279,
    "ĠFloating": 42590,
    "ĠBusy": 39770,
    "wards": 1555,
    "Ġspread": 2253,
    "Ġfulf": 4338,
    "ĠBeijing": 19130,
    "Ġfeeding": 9389,
    "Ġautumn": 10143,
    "Ġ=>": 19599,
    "ĠCup": 14289,
    "ĠAssertiveness": 45714,
    "Plant": 17909,
    "ĠPerks": 44505,
    "Ġebbs": 42662,
    "Aqu": 42789,
    "104": 33506,
    "Ġweekend": 7760,
    "ĠAmericas": 15519,
    "Ġbookings": 35515,
    "Ġcounsel": 14004,
    "ĠBerners": 21402,
    "ĠFood": 7068,
    "DNS": 40111,
    "Ġrevolves": 15550,
    "81": 9867,
    "ĠNVIDIA": 34860,
    "Ġscholars": 14991,
    "ĠTF": 28864,
    "Ġpioneer": 30410,
    "onics": 30709,
    "Ġoutlook": 14421,
    "1": 21,
    "Ġethereal": 16710,
    "eus": 40238,
    "Ġfelony": 45537,
    "ĠNarrow": 34859,
    "Ġballet": 26041,
    "ĠRomans": 26245,
    "Ġjovial": 43644,
    "ĠCain": 46768,
    "relie": 28325,
    "/": 19,
    "Ġseced": 40653,
    "Ġchoices": 4112,
    "Ġsuggested": 8204,
    "Ġvertebrae": 45860,
    "Ġmonetary": 13507,
    "Ġyouth": 12704,
    "Ġready": 3565,
    "Ġtherap": 6682,
    "Ġmagnetic": 8136,
    "ĠAthletes": 34227,
    "ĠExpand": 18389,
    "Ġwhose": 6037,
    "duled": 10983,
    "ĠTitan": 36306,
    "ĠEncouragement": 32423,
    "Ġhumility": 28161,
    "ieu": 47023,
    "Ġpeering": 36601,
    "Jes": 46088,
    "ĠShows": 36865,
    "ĠAriel": 43349,
    "ĠActually": 39122,
    "Ġpup": 19550,
    "Ġamber": 30946,
    "echo": 38892,
    "LLO": 48825,
    "ĊĠĠĠĠĠĠĠĠĠĠĠĠĠĠĠĠĠĠĠĠĠ": 29308,
    "Ġstellar": 33434,
    "ĠVoy": 33468,
    "Ġconsent": 11533,
    "Ġmanure": 32035,
    "Ġvalley": 13947,
    "topia": 44538,
    "ĠSamar": 44732,
    "Ġcalculation": 11787,
    "Ġfret": 29144,
    "Ġextremely": 6436,
    "Ġreevaluate": 33167,
    "ĠGuest": 37172,
    "ĠHacking": 42277,
    "Ġ163": 47950,
    "fits": 13067,
    "Ġdeserve": 18560,
    "opards": 22759,
    "ĠLimits": 48375,
    "lectable": 23219,
    "astering": 29898,
    "ĠEu": 3148,
    "Ġsubatomic": 18596,
    "Ġforb": 38244,
    "Ġchatbots": 5451,
    "bris": 9899,
    "uls": 9047,
    "ission": 3800,
    "anguages": 25334,
    "otting": 26521,
    "ĠTa": 46603,
    "Ġachievable": 7561,
    "ite": 547,
    "product": 7279,
    "ĠSolitude": 33797,
    "Ġpolitician": 19420,
    "Ġdaffodils": 40451,
    "zes": 14263,
    "51": 16767,
    "Ġsuffrage": 41599,
    "Ġacids": 11108,
    "Ġelemental": 36887,
    "Ġgrilling": 28234,
    "Ġrepressed": 43786,
    "Ġtableware": 47643,
    "Ġscaling": 12897,
    "faceted": 13912,
    "yr": 16057,
    "Vel": 40202,
    "Ġidioms": 24885,
    "eless": 6287,
    "Ġprohib": 12883,
    "Ġpsychoactive": 49937,
    "ĠScar": 24815,
    "Ġonscreen": 43328,
    "Ġsadness": 7673,
    "va": 16592,
    "Ġruler": 14807,
    "avid": 9550,
    "Ġgarnishes": 48667,
    "peror": 11992,
    "Ġcuff": 25452,
    "Behavior": 27626,
    "Ġfryers": 49058,
    "Ġmultinational": 15509,
    "ĠIntelligence": 4266,
    "ĠSupplies": 30314,
    "Ġlevers": 34712,
    "ratic": 4455,
    "Maximizing": 42021,
    "azed": 7951,
    "Works": 30654,
    "ĠEdvard": 48532,
    "Ġearliest": 13962,
    "ĠAssoci": 48038,
    "Ġimperfections": 31641,
    "Ethical": 42526,
    "ĠMonth": 26747,
    "ĠCampaign": 18686,
    "Impro": 12267,
    "AC": 8463,
    "assy": 33334,
    "Ġgiven": 773,
    "ĠRembrandt": 34358,
    "Ġrecommender": 21630,
    "ĠUnusual": 47437,
    "iel": 3384,
    "Ġcortisol": 23054,
    "ĠImpact": 7020,
    "chooling": 15213,
    "Âł": 7816,
    "Ġcalor": 11618,
    "Ġ143": 48068,
    "Ġhydration": 13318,
    "ĠMayo": 35297,
    "Ġquatrain": 38532,
    "ĠInvestig": 48368,
    "ĠMillfield": 39599,
    "Ġemoji": 37611,
    "Ġleftmost": 38895,
    "Ġterrorists": 48845,
    "Ġeditor": 10541,
    "Interviewer": 26313,
    "Ġdeb": 3028,
    "Cotton": 50250,
    "Ġmatched": 18588,
    "Ġembodied": 44319,
    "ĠHI": 38440,
    "ĠLZW": 43656,
    "Ġhomophobia": 42162,
    "Ġseaweed": 26060,
    "Ġbrick": 12092,
    "Ġpointed": 16465,
    "dir": 40233,
    "ĠâĢ¦": 16289,
    "Ġlayman": 35033,
    "Saxon": 40195,
    "vegetarian": 42361,
    "icone": 30742,
    "Ġcarving": 32113,
    "ĠRobby": 17895,
    "alan": 28835,
    "ĠMagnificent": 42291,
    "Ġdeposition": 34944,
    "ness": 920,
    "Ġbre": 1326,
    "Ġformally": 23231,
    "Ġharmony": 7038,
    "Ġinequality": 5812,
    "Ġlandfill": 21720,
    "Ġgrants": 13958,
    "angu": 883,
    "erenn": 24350,
    "ĠContact": 10835,
    "Ġrenov": 27962,
    "Ġpur": 1100,
    "Ġelectronics": 6136,
    "Ġintestine": 14646,
    "etery": 27965,
    "Ġtells": 7473,
    "Ġglitter": 28187,
    "1840": 47914,
    "eryllium": 41106,
    "urnal": 17841,
    "Ġanimated": 12823,
    "licking": 24730,
    "Ġasterisks": 30355,
    "Ġendor": 9478,
    "GR": 42844,
    "Pressure": 48839,
    "Ġdemise": 47499,
    "Ġcoloring": 22424,
    "Ġblaze": 24180,
    "Ġdetail": 2545,
    "ĠRight": 10379,
    "ĠSchedule": 13343,
    "ĠHVAC": 20829,
    "Ġlos": 38218,
    "ĠMaximum": 32442,
    "rete": 8423,
    "ĠNLTK": 43703,
    "Ġcollabor": 2452,
    "ĠKodak": 43897,
    "Ġsuscept": 14723,
    "ĠWednesday": 21543,
    "ĠSilent": 34089,
    "Ġclutches": 42006,
    "Ġclarify": 14227,
    "ĠDarkness": 34011,
    "ĠGMO": 20041,
    "Ġdisease": 3199,
    "ĠReinforcement": 21236,
    "Developing": 23351,
    "ĠLever": 11530,
    "odynam": 10590,
    "Ġmascul": 33878,
    "Þ": 159,
    "Ġelig": 13965,
    "algorithm": 25811,
    "co": 4668,
    "Ġsubdivided": 50113,
    "Ġgroomed": 49479,
    "Research": 9453,
    "Ġdiagonal": 16357,
    "weight": 7568,
    "Ġexplained": 12407,
    "Translation": 39135,
    "Ġloan": 6818,
    "Ġpreprocessed": 11949,
    "34": 7574,
    "Nut": 28750,
    "Ġmetabolized": 41932,
    "Ġvivid": 7182,
    "ĠTrenton": 39944,
    "ĠHippo": 27793,
    "Robotic": 44864,
    "Ġbytecode": 37610,
    "ĠNil": 38568,
    "Ġcounterparts": 14877,
    "Ġeconomical": 29097,
    "holds": 10100,
    "Ġwatchful": 35211,
    "Ġphenomena": 9248,
    "Ġacknowled": 11213,
    "Ġformats": 11535,
    "Ġobservers": 23822,
    "Ġpathogens": 27522,
    "ĠTableau": 23409,
    "Wel": 40206,
    "nesses": 4368,
    "Ġfollowed": 4551,
    "Man": 11583,
    "Fix": 21439,
    "ĠMidway": 34048,
    "ĠDam": 14791,
    "bache": 42940,
    "Ġmotherboards": 44576,
    "erencing": 8891,
    "zal": 34522,
    "ĠON": 19085,
    "Ġforgot": 8081,
    "ĉĠĠĠ": 46369,
    "ĠRecon": 27532,
    "Ġformidable": 19625,
    "ĠNevada": 22876,
    "Ġaccessorize": 36696,
    "Ġsacred": 20668,
    "Ġvoy": 16981,
    "1889": 44335,
    "rey": 12694,
    "chains": 27248,
    "Ġinvited": 12556,
    "ĠVal": 6984,
    "Ġadvis": 8977,
    "Ġsmartly": 44161,
    "scill": 15520,
    "Ġcrept": 24842,
    "rent": 1460,
    "itaries": 46440,
    "ĠDr": 4677,
    "title": 5772,
    "starts": 48611,
    "Ġcurls": 33485,
    "thr": 43405,
    "Ġsmoky": 32278,
    "Ġpriorities": 8650,
    "Summarise": 22641,
    "atography": 20113,
    "Ġsustenance": 22844,
    "Ġsaddle": 44559,
    "Ġrickety": 50095,
    "Ġmol": 12059,
    "Ġstretching": 10247,
    "Goodbye": 41856,
    "Ġguesses": 26873,
    "ĠHide": 46944,
    "ropical": 5997,
    "rill": 20767,
    "Ġgal": 20135,
    "Ġgrate": 33555,
    "Ġwed": 9040,
    "Ġpop": 1052,
    "Ġstatically": 33654,
    "ÏĢrh": 49282,
    "Tom": 10112,
    "Ġapplic": 1366,
    "plus": 19338,
    "ĠIPCC": 44696,
    "ĠFloods": 37621,
    "ĠRMS": 43312,
    "dx": 17994,
    "roducing": 7755,
    "ortar": 16627,
    "ĠEclipse": 42710,
    "Ġhyphen": 31478,
    "oc": 437,
    "OMER": 37423,
    "Ķ": 247,
    "maj": 30679,
    "ilings": 27242,
    "ĠDubai": 39834,
    "ord": 800,
    "ĠContest": 47832,
    "Ġgirlfriend": 44348,
    "ĠmaxEnding": 36915,
    "Ġscampered": 32063,
    "Ġmercen": 49613,
    "rep": 10522,
    "Ġcal": 1007,
    "vering": 36355,
    "ĠCasper": 45332,
    "Ġnortheast": 28857,
    "Ġposting": 11188,
    "Ġgates": 17788,
    "Arch": 33781,
    "Ġspon": 12440,
    "ĠAndriy": 41281,
    "Ġtriump": 31062,
    "ĠMiss": 9835,
    "ycl": 47511,
    "Ġbabies": 28618,
    "Ġgrit": 24085,
    "lection": 3234,
    "Ġdiscounts": 5868,
    "Ġlaboratory": 15240,
    "polygon": 45787,
    "Ġnewcom": 38555,
    "goers": 32350,
    "curate": 11782,
    "ĠLocate": 22960,
    "ā": 194,
    "chain": 3736,
    "ĠStartups": 29211,
    "Ġrhymes": 14109,
    "NY": 46124,
    "aw": 3238,
    "ĠStanding": 26924,
    "ĠGenus": 42003,
    "Ġsupernov": 32311,
    "eal": 11587,
    "ĠGood": 5583,
    "anium": 24594,
    "Ġhypothermia": 49024,
    "Ġexacerbated": 29380,
    "Ġcameras": 6832,
    "ĠMotorcycles": 49341,
    "inks": 3165,
    "atoga": 29732,
    "ĠCDs": 31464,
    "Ġactivating": 47524,
    "Ġabc": 34775,
    "Ġpand": 3070,
    "Ġcop": 4801,
    "Ġconstructor": 26132,
    "Eating": 15598,
    "ermat": 22808,
    "Ġcropping": 32696,
    "ĠStructures": 29433,
    "cent": 3048,
    "Ġuntrust": 47515,
    "Ġjudge": 11649,
    "raz": 26505,
    "ĠDun": 30891,
    "ĠSuccess": 9669,
    "Ġporpo": 32778,
    "iction": 6351,
    "Ġradians": 16706,
    "ossus": 27451,
    ":\"": 37879,
    "mic": 16227,
    "ĠYogurt": 17931,
    "Ġwashable": 44851,
    "crossentropy": 49427,
    "ipcc": 47026,
    "ychel": 35025,
    "Ġbiases": 6608,
    "Ġburnt": 35176,
    "Drive": 24984,
    "Immigration": 37691,
    "Ġspirited": 41530,
    ")/(": 8456,
    "ioms": 23086,
    "Analytics": 34107,
    "Ġlab": 3183,
    "Ġcertainty": 20912,
    "Ġgratification": 34263,
    "ĠGener": 5911,
    "izon": 24123,
    "ĠSimmer": 48076,
    "Ġargue": 7115,
    "gon": 3588,
    "Ġrefund": 11619,
    "Ġnortheastern": 35886,
    "ĠEmb": 15482,
    "ðŁĮ": 19978,
    "breathing": 31758,
    "versational": 38804,
    "ĠSquares": 24956,
    "Ġjoin": 5458,
    "idered": 46629,
    "ik": 2361,
    "Ġfurious": 25521,
    "ĠBean": 22433,
    "ĠCircus": 35773,
    "alism": 14271,
    "Marine": 49021,
    "ĠrÃ©": 38454,
    "relative": 47921,
    "ĠBeware": 38836,
    "Ġtug": 34533,
    "ĠMayor": 30179,
    "Individuals": 30538,
    "Alternatively": 18202,
    "Ġidentical": 13112,
    "Ġhits": 15766,
    "Ġastonishing": 23483,
    "ĠMuff": 38420,
    "Ġ125": 22435,
    "ĠPalestine": 41872,
    "Ġtracking": 4275,
    "1961": 26022,
    "Ġhumanity": 7487,
    "ĠArr": 13206,
    "ĠBarnum": 41622,
    "Ġhydrologic": 33729,
    "Ġnumerals": 39192,
    "ĠRelevance": 45692,
    "enson": 43743,
    "Ġgyrosc": 39889,
    "Ġexpend": 16834,
    "ĠInitialize": 10416,
    "ĠMik": 33295,
    "Ġfool": 17778,
    "dy": 8700,
    "Ġ\\": 7418,
    "Ġlimitation": 24244,
    "Olive": 46132,
    "Recipe": 18151,
    "card": 17341,
    "urtured": 48091,
    "Ġrelative": 7977,
    "ĠFitTrax": 44815,
    "Ġprefix": 14206,
    "eleev": 44244,
    "Ġawa": 16020,
    "args": 43195,
    "Rust": 46147,
    "Ġguided": 11310,
    "rike": 46760,
    "Ġeard": 46529,
    "Ġweren": 25977,
    "ĠMarx": 27569,
    "aches": 2567,
    "disc": 8631,
    "frac": 26124,
    "Ġfluctuating": 27665,
    "ĠAnonymity": 45690,
    "Ġindications": 47788,
    "Ġblueprint": 17876,
    "ĠSydney": 17712,
    "ĠParticipated": 48777,
    "pone": 40545,
    "ĠAperture": 46703,
    "Ġworkload": 8336,
    "orge": 5963,
    "value": 7166,
    "Ġsoundtrack": 19660,
    "Ġconiferous": 43339,
    "Ġmistreatment": 31193,
    "Teen": 28772,
    "ERI": 26114,
    "ĠrightIndex": 41040,
    "Maj": 22667,
    "ĠEdwin": 35440,
    "Ġscar": 11419,
    "ĠBaggins": 30415,
    "Ġouts": 28113,
    "forgotten": 41186,
    "Ġcostumes": 19908,
    "ĠPartition": 41505,
    "ternal": 31099,
    "Ġeats": 24076,
    "cery": 5062,
    "Ġdepending": 2643,
    "485": 45974,
    "ĠLemon": 13841,
    "Ġhast": 23630,
    "Ġindulgent": 34006,
    "Ġastrophysicist": 49626,
    "ĠCouples": 49618,
    "ewear": 43913,
    "ĠWords": 17386,
    "Ġdeducted": 49604,
    "opilot": 40630,
    "Brow": 36010,
    "Ġcomposers": 37464,
    "Ġsandwiches": 12932,
    "Ġoccupations": 26190,
    "ww": 5063,
    "Ġtransmits": 40935,
    "aries": 2826,
    "Ġglamour": 32860,
    "Ġshowerheads": 17300,
    "Ġ117": 35193,
    "irk": 27264,
    "Ġpins": 27197,
    "ĠSwe": 34687,
    "abont": 43363,
    "ĠNOAA": 39820,
    "ĠMarin": 41504,
    "Ġprivately": 32425,
    "Ġburned": 12507,
    "ĠProfessionals": 42679,
    "Ġhelm": 30888,
    "Ġ29": 8944,
    "ien": 1030,
    "Ġgovernance": 11869,
    "-->": 36577,
    "Ġshading": 23851,
    "Ġtraum": 18053,
    "Ġps": 29738,
    "ĠSensory": 45243,
    "ĠDrain": 19079,
    "sad": 33085,
    "ĠRainier": 44926,
    "oor": 2741,
    "Double": 28736,
    "ĠStre": 29039,
    "Ġtiered": 42432,
    "Animal": 16676,
    "tz": 29702,
    "Ġirradi": 48095,
    "Ġfellowship": 48996,
    "Ġrejuvenation": 30351,
    "Activities": 45180,
    "ĠMitigating": 45072,
    "Ġrep": 843,
    "ĠBeginner": 37166,
    "Ġthinly": 18935,
    "ĠBoron": 46935,
    "ĠNewsletter": 39475,
    "sustainability": 34511,
    "ĠBryant": 29584,
    "ĠThree": 14202,
    "smosis": 41767,
    "dew": 46229,
    "Ġorientation": 13899,
    "Ġcollocation": 47642,
    "bject": 1019,
    "Ġelectricity": 3579,
    "Ġworkforce": 7289,
    "rinsic": 21066,
    "Ġhazelnut": 49575,
    "Ġimplementing": 3538,
    "flour": 39260,
    "Ġinterrupt": 8912,
    "dern": 38642,
    "ositions": 40648,
    "Ġhair": 5237,
    "son": 8933,
    "leigh": 28840,
    "Ġzer": 29189,
    "Stopping": 39963,
    "php": 28135,
    "Ġrelation": 14311,
    "sement": 43213,
    "ĠGro": 13094,
    "ĠLove": 10278,
    "ĠDerivatives": 49766,
    "Sequ": 34025,
    "ĠSn": 7921,
    "Call": 25110,
    "temperatures": 39284,
    "Ġprolong": 12448,
    "ĠPine": 23632,
    "ĠRespectful": 45099,
    "ĠRecreation": 39027,
    "atories": 24587,
    "Ġende": 14544,
    "ĠChildren": 9802,
    "Gravitational": 44915,
    "ĠRequirement": 48808,
    "Ġsubscribed": 42027,
    "Ġheist": 34665,
    "Ġlap": 19044,
    "buying": 28543,
    "Most": 18466,
    "ink": 1305,
    "ĠHawthorne": 44763,
    "Ġstudied": 9433,
    "Vi": 36077,
    "Ġy": 341,
    "Ġhabituation": 47877,
    "outi": 36504,
    "ĠPicnicking": 49578,
    "mpy": 36808,
    "quer": 21516,
    "Ġtutorial": 8773,
    "ndelle": 38134,
    "ĠleftIndex": 38896,
    "Ġdifferences": 2191,
    "ĠEarning": 39701,
    "tested": 48559,
    "Ġflank": 43827,
    "Ġpurposeful": 44216,
    "iplication": 29294,
    "ĠTail": 20471,
    "Ġmarathons": 36886,
    "kick": 38029,
    "ĠBayern": 44740,
    "Ġreceptive": 31524,
    "Ġgluing": 43903,
    "ĠLights": 17003,
    "Legal": 44843,
    "ĠCompetition": 20369,
    "Ġhex": 9048,
    "ĠMuseum": 9426,
    "Ġstuds": 36665,
    "Ġcontributes": 8622,
    "ĠGuyana": 33826,
    "Ġbarbec": 17878,
    "Ġalley": 20486,
    "Ġfold": 9890,
    "Ġrelat": 7321,
    "Finland": 48935,
    "Poster": 46140,
    "Ġ9000": 47574,
    "Ġenclosures": 35593,
    "ĠWWII": 28624,
    "Private": 44717,
    "Ġflourishes": 44441,
    "ĠAssorted": 48039,
    "ĠCider": 46774,
    "Ġcynical": 32354,
    "Ġflute": 28167,
    "Ġpalpitations": 49281,
    "Ġexcer": 11314,
    "Delivery": 49672,
    "ĠHe": 1116,
    "ariums": 43737,
    "ĠSP": 24110,
    "Keeping": 34031,
    "Ġcallback": 41337,
    "Ġouter": 9007,
    "ĠGossip": 34830,
    "Ġcomponent": 4819,
    "activated": 15485,
    "Ġruffled": 49995,
    "ĠFriend": 10869,
    "imia": 43256,
    "Ġruin": 29071,
    "Ġcustomizable": 13004,
    "ĠGlue": 34001,
    "Ġelephant": 7400,
    "ĠCatfish": 48289,
    "financial": 42660,
    "Ġsitemap": 36791,
    "Ġ104": 28199,
    "ĠSunlight": 28372,
    "ĠSudan": 25029,
    "ĠAvengers": 16874,
    "staff": 31873,
    "isodes": 40413,
    "eds": 3804,
    "Ġreferencing": 25971,
    "ĠVegetation": 48658,
    "fflÃ©": 36493,
    ")`": 8347,
    "ĠBag": 15179,
    "ĠPuget": 39617,
    "Scanner": 42499,
    "mn": 23550,
    "Paste": 46135,
    "tasks": 40319,
    "mmas": 30952,
    "ĠMaui": 31651,
    "Ġscales": 11385,
    "broken": 21791,
    "Ġbulb": 11135,
    "mployment": 43008,
    "ĠChips": 31961,
    "Ġcapitalists": 44384,
    "ĠGuide": 14582,
    "anglement": 40786,
    "Ġorigami": 26733,
    "Ġsapphire": 42668,
    "Operations": 49302,
    "Ġfetch": 19293,
    "Ġpolynomials": 44936,
    "ested": 19331,
    "Ġbloody": 47961,
    "ĠStrain": 30959,
    "ĠBaidu": 45900,
    "scar": 20909,
    "Ġmitochond": 13753,
    "ditioned": 47344,
    "artments": 21940,
    "ĠNixon": 29008,
    "Ġmitochondrion": 48977,
    "isia": 29742,
    "uating": 13248,
    "ĠBrushing": 39693,
    "ĠPull": 24125,
    "azers": 35078,
    "ĠObservations": 45418,
    "caterpillar": 42951,
    "Ġshared": 3658,
    "âĮ": 24577,
    "Ġforthcoming": 44886,
    "-.": 29622,
    "Care": 17980,
    "otle": 16082,
    "Ġstatus": 5888,
    "Dancing": 25114,
    "Print": 19456,
    "428": 35999,
    "Ġsidelines": 45571,
    "ĠTimothy": 35418,
    "oculture": 46831,
    "Mercury": 39829,
    "Bonne": 49370,
    "ept": 22687,
    "Ġmomentary": 47808,
    "Ġopportunity": 2974,
    "Hemingway": 49954,
    "Ġmistrust": 32380,
    "ĠInfantino": 44737,
    "Ġpondered": 31401,
    "ĠsautÃ©ing": 45113,
    "Elect": 12271,
    "ert": 1746,
    "Ġforesight": 35949,
    "ivest": 10743,
    "Handle": 42418,
    "Ġrecognizes": 19657,
    "Ġprematurely": 49354,
    "Toyota": 34235,
    "ĠConsent": 33668,
    "ĠĠĊĠĠĠ": 24610,
    "58": 15282,
    "IBM": 46083,
    "istro": 28905,
    "Ġsmoothly": 8064,
    "umped": 19688,
    "ĠDeleg": 18343,
    "ĠContrast": 41321,
    "Ġcostly": 10335,
    "Ġsocietal": 8861,
    "Ġed": 1096,
    "ĠClarinet": 36897,
    "ution": 827,
    "Ġreassurance": 34059,
    "ĠHimalayas": 21421,
    "Ġ1600": 41400,
    "Ġnutrient": 8731,
    "indu": 9082,
    "Ġmars": 21886,
    "nI": 31792,
    "Ġskinny": 44387,
    "Ġspinal": 25258,
    "ĠRecords": 20609,
    "ĠStuart": 40947,
    "Ġpaved": 15757,
    "Ġprincess": 7976,
    "tbody": 34514,
    "Ġincurring": 28035,
    "Ġcure": 14758,
    "ĠDarth": 25916,
    "ĠHorn": 38445,
    "Ġpleasantly": 41893,
    "ĊĠĊ": 29141,
    "Ġfaltered": 34082,
    "Ġquickly": 2030,
    "Ġvary": 2654,
    "ĠSighs": 46742,
    "ĠResponsive": 26243,
    "Linda": 42877,
    "Ġinclination": 38401,
    "ĠRomania": 26176,
    "ĠTan": 43291,
    "Ġ1929": 22414,
    "Ġinstruction": 5618,
    "Ġhunter": 18772,
    "Medical": 27708,
    "SP": 13150,
    "Ġpolype": 47300,
    "agna": 10833,
    "Ġcupc": 21277,
    "Ġrecycled": 8626,
    "Result": 23856,
    "ltry": 17445,
    "Ġdisplace": 6764,
    "oustic": 16236,
    "Ġenigmatic": 19858,
    "Ġweighted": 19950,
    "itud": 2751,
    "ĠPolicy": 16168,
    "Ġspeechless": 47754,
    "ĠZebra": 26299,
    "Ivoire": 45871,
    "Renaissance": 48979,
    "Ġtreatable": 41201,
    "erblading": 48247,
    "#####": 30724,
    "TM": 17552,
    "GPU": 22659,
    "Ġmanipulatives": 50014,
    "Ġromance": 13424,
    "Ġcrowd": 9328,
    "Ġsublime": 44010,
    "Ġcured": 40386,
    "Ġdra": 1615,
    "ĠedX": 29983,
    "Ġfilming": 43996,
    "Ġstraining": 47792,
    "Ġlocality": 47370,
    "ostor": 34867,
    "ĠNeytiri": 50124,
    "ĠSTAR": 28574,
    "Deli": 31704,
    "Unlock": 32481,
    "ĠLeftovers": 49421,
    "Ġsipping": 21122,
    "Ġreconnect": 21743,
    "Ġdispro": 14415,
    "Strateg": 29503,
    "ords": 2051,
    "Ġaval": 47417,
    "ĠMissouri": 24986,
    "Ġsuccesses": 13509,
    "Oh": 9460,
    "Ġample": 14929,
    "Ġalpine": 29817,
    "lides": 17763,
    "ĠSalary": 20939,
    "Ġlandscape": 4448,
    "Rose": 36063,
    "Dinner": 23522,
    "Ġcommitted": 7538,
    "ĠChin": 29079,
    "Ġcomplex": 1426,
    "Ġcreating": 1703,
    "ĠSince": 4912,
    "ĠOlympus": 41962,
    "Ġrents": 41614,
    "ĠĠĠĠĠĠĠĠĠĠĠĠĠĠĠĠĠĠĠĠĠĠĠĠĠĠĠĠĠĠ": 30098,
    "Ġuppercase": 11090,
    "anging": 4026,
    "ĠHire": 22328,
    "ĠAmbitious": 41087,
    "Ġhandwriting": 16664,
    "rolling": 13471,
    "Ġcaramelized": 28631,
    "Ġdeodor": 43385,
    "Grocery": 23960,
    "Ġdeep": 1817,
    "Lev": 39348,
    "ĠEmbed": 30427,
    "ĠJud": 16654,
    "Ġreally": 4264,
    "Ġherbiv": 13549,
    "ĠButtons": 44226,
    "Ġcompliant": 27604,
    "ĠCrescent": 30830,
    "Ġairbags": 39840,
    "Ġscreams": 32734,
    "Ġartic": 14429,
    "connection": 23702,
    "Ġdisobedience": 23050,
    "Ġuniform": 10224,
    "Wa": 21092,
    "Ġenthusiast": 29424,
    "Ġintention": 11301,
    "Ġperpet": 8214,
    "Ġindulge": 18701,
    "ĠSwift": 20942,
    "ĠVolume": 30300,
    "Ġhissing": 47244,
    "Ġlowers": 30060,
    "Ġfeathers": 10421,
    "urd": 24102,
    "ĠMeiosis": 44503,
    "Ġimpat": 29850,
    "ĠCopern": 27783,
    "ĠReinforce": 45853,
    "Ġcoinc": 38652,
    "Ġmush": 10188,
    "ĠÏī": 27924,
    "ĠMarais": 44454,
    "Ġcoil": 29065,
    "indromes": 37489,
    "ĊĠĠĊĠ": 17458,
    "Ġimped": 36417,
    "Ġnationality": 32526,
    "ĠStarring": 35457,
    "Exception": 27446,
    "Ġmolten": 20365,
    "ĠFrozen": 22612,
    "Ġmarathon": 11128,
    "ĠTsuk": 34632,
    "2016": 23278,
    "ĠKentucky": 28693,
    "Ġlull": 19045,
    "Ġoptical": 18329,
    "ĠJour": 9639,
    "Ġdiet": 2428,
    "Ġdashboards": 25620,
    "IMF": 26918,
    "Ġcommissions": 40835,
    "ĠOlive": 15069,
    "Ġcumbers": 43137,
    "Ġperfect": 2401,
    "education": 45679,
    "Ġguidelines": 6214,
    "ĠRedemption": 18354,
    "ĠVP": 17630,
    "Ġstanza": 21795,
    "Ġelectron": 4960,
    "Too": 31746,
    "Ġinclusive": 7284,
    "Ġinterpolation": 48031,
    "Ġjavascript": 40810,
    "Interactive": 39335,
    "entle": 3855,
    "Ġacid": 5621,
    "ĠFelis": 42204,
    "ĠFeline": 40762,
    "ĠUns": 15073,
    "Ġeconom": 1233,
    "Ġjust": 1329,
    "Ġremotely": 7856,
    "Oct": 27135,
    "ĠRSVP": 25845,
    "Ġfundamentals": 20345,
    "ĠResources": 13591,
    "street": 34590,
    "Ġescal": 12322,
    "Ġworth": 4750,
    "Ġsalads": 17911,
    "ĠSnape": 28458,
    "ĠSepar": 44776,
    "Ġ2040": 41062,
    "Ġfo": 10614,
    "Ġworse": 14292,
    "Daffodils": 46039,
    "Ġattended": 13853,
    "dehy": 35094,
    "ĠHDDs": 45734,
    "Ġrealization": 17433,
    "Ġanger": 9420,
    "Nutrition": 35884,
    "izard": 7106,
    "Becoming": 28728,
    "Ġchord": 13483,
    "Ġoutreach": 21199,
    "ĠPeaceful": 39495,
    "inea": 17377,
    "folk": 33824,
    "Desk": 31000,
    "ĠHunt": 16097,
    "ĠVito": 23241,
    "Ġflown": 36832,
    "Ġflippers": 40983,
    "usa": 38359,
    "ĠHearing": 46948,
    "Gen": 11512,
    "Ġexaggerated": 22170,
    "Ġ____________________": 37451,
    "hydr": 30097,
    "jective": 11249,
    "Ġmisses": 44180,
    "ĠSUV": 46743,
    "Ġpseud": 12282,
    "ĠWest": 9382,
    "Ġforecasts": 16022,
    "Ġsilicon": 37054,
    "ĠNum": 15191,
    "Ġpersonalised": 36715,
    "Ġburnout": 11809,
    "ĠLionel": 42026,
    "ĠKhan": 29484,
    "Rapid": 49680,
    "Ġforwarding": 44315,
    "Ġrequirements": 3731,
    "Ġderiving": 41537,
    "ĠJournal": 16197,
    "Pizza": 20750,
    "Ġcoolest": 47798,
    "ucent": 18070,
    "opath": 43417,
    "Database": 42821,
    "ĠGlo": 25296,
    "ĠEducation": 5832,
    "tuse": 24565,
    "Ġstratum": 37529,
    "ler": 5123,
    "ĠIdentify": 4502,
    "Ġbusiness": 876,
    "Ġformality": 36663,
    "Ġquicksort": 21963,
    "Ġmommy": 43184,
    "Ġjoints": 15681,
    "Smith": 28454,
    "GHT": 25742,
    "Ġcontinuously": 6040,
    "matization": 35075,
    "'}": 27834,
    "Ġboy": 5016,
    "ipment": 3840,
    "Ġfeas": 11996,
    "scissors": 25414,
    "Ġhesitated": 25548,
    "Ġdays": 2591,
    "atal": 29730,
    "Ġtravelled": 26710,
    "Ġwell": 945,
    "Ġcommonalities": 33488,
    "aea": 31283,
    "ĠExclusive": 32682,
    "matics": 47604,
    "Ġweak": 4615,
    "Ġyahs": 40540,
    "Instant": 29939,
    "Ġvolatiles": 44200,
    "Ġintegers": 4833,
    "Hoping": 42855,
    "ĠMary": 7467,
    "Ġamph": 33406,
    "Ġkeyboards": 22537,
    "Ġbolded": 26833,
    "ĠFifth": 30882,
    "cl": 5164,
    "Ġgiving": 4083,
    "Ġpreced": 15341,
    "Ġskydiving": 28261,
    "Ġactor": 14056,
    "Ġterms": 2171,
    "ĠPomp": 43449,
    "Ġnarrowed": 41806,
    "aided": 25147,
    "Ġcompounded": 23370,
    "Ġcollaborative": 8206,
    "Ġcout": 14759,
    "Ġastonished": 32788,
    "ĠPun": 27303,
    "ĠAdolf": 29978,
    "Ġquotes": 12769,
    "Ġjoules": 40812,
    "ĠArchduke": 23423,
    "Ġfine": 5160,
    "Ġfluid": 10240,
    "ĠSeismo": 47874,
    "Ġblessings": 26969,
    "Ġuplifted": 44850,
    "ĠGM": 12810,
    "stical": 17169,
    "ĠmL": 30733,
    "ĠâĪļ((-": 42046,
    "ĠRestate": 29358,
    "ĠMagic": 19205,
    "merge": 29306,
    "smtp": 37237,
    "sters": 15615,
    "WW": 24540,
    "Ġthreatens": 19429,
    "jump": 34488,
    "Ġcategorizing": 19422,
    "Ġyes": 14032,
    "Anger": 35039,
    "ecoming": 23665,
    "Prot": 31119,
    "Ġnum": 679,
    "ers": 355,
    "lare": 36138,
    "ĠAllergies": 49878,
    "Ġ47": 20553,
    "ĠOak": 17199,
    "keepers": 31415,
    "Ġhudd": 16798,
    "Ġdisparity": 42098,
    "FAQ": 41986,
    "ĠZuckerberg": 22206,
    "Marie": 28572,
    "Ĥï¸ı": 46377,
    "Ġfuller": 44175,
    "Empt": 30615,
    "Ġpul": 6475,
    "Sy": 24530,
    "unglasses": 25457,
    "Ġgloomy": 20723,
    "Ġplethora": 27571,
    "eregr": 40652,
    "Ġnomad": 41969,
    "Ġresur": 25276,
    "Ġelven": 44104,
    "Ġhyper": 5870,
    "ĠFisherman": 34259,
    "Saturday": 34441,
    "ĠHawkins": 48547,
    "Dye": 46037,
    "Ġdebilitating": 50125,
    "Ġalterations": 30296,
    "ipart": 47025,
    "Jurassic": 37930,
    "Ġstunning": 4325,
    "ĠUrs": 23210,
    "inees": 46843,
    "Ġpreferring": 30164,
    "Ġbanished": 36926,
    "ĠGrayson": 44474,
    "Il": 30631,
    "Ġwane": 46450,
    "ft": 1635,
    "racecar": 34053,
    "Ġanyone": 4299,
    "ĠInner": 29788,
    "ighter": 6113,
    "Ġware": 30725,
    "ĠPred": 36430,
    "Ġvibrates": 48064,
    "Samsung": 29660,
    "Conf": 19128,
    "Birth": 36013,
    "Ġyo": 28875,
    "hra": 34478,
    "take": 22693,
    "Ġexcites": 36848,
    "programming": 35178,
    "Ġrekindle": 42633,
    "Ġbaseball": 15682,
    "Ġprescription": 22843,
    "Ġmedioc": 34893,
    "Not": 11750,
    "ĠHonshu": 50092,
    "Fund": 34404,
    "ĠPrint": 9812,
    "Ġje": 14416,
    "Ġrides": 13837,
    "Ġenters": 9357,
    "ĠNim": 47145,
    "Ġrehabilitation": 17967,
    "crafts": 37092,
    "Ġglare": 41017,
    "Cult": 46015,
    "Ġexacerbating": 19200,
    "Return": 17944,
    "nical": 30682,
    "Ġgone": 6940,
    "ĠTaj": 17173,
    "ĠArn": 38856,
    "Ġvictorious": 14876,
    "Ġdistort": 28190,
    "ĠRocky": 19476,
    "ĠTikka": 42339,
    "Ġmagic": 5121,
    "ĠTornado": 39768,
    "Ġstockings": 49758,
    "Ġspeak": 2799,
    "ĠDetailed": 30299,
    "ometimes": 9480,
    "ĠSiteGround": 42232,
    "ĠMario": 20503,
    "Ġhonest": 5914,
    "feature": 42070,
    "Ġlig": 28853,
    "single": 48084,
    "Ġincurred": 28036,
    "Ġcommander": 35360,
    "Ġweave": 29879,
    "WWF": 39795,
    "ĠBelgium": 16047,
    "1937": 38798,
    "Ġplagiar": 11895,
    "Ġrosy": 40861,
    "ĠCloning": 47725,
    "ĠInvestigate": 39228,
    "Ġanimals": 1777,
    "Ġsprite": 36437,
    "Ġdetectors": 26070,
    "ise": 796,
    "Ġtwin": 25938,
    "ĠWealth": 30035,
    "oT": 6757,
    "Ġunchecked": 24860,
    "ĠTerritory": 42601,
    "Ġcombines": 7074,
    "bin": 19809,
    "Ġroboticist": 48716,
    "aya": 20807,
    "kNumThreads": 46277,
    "Unfortunately": 13886,
    "Ġalgae": 15144,
    "share": 31166,
    "Ġcashier": 31291,
    "NLG": 42883,
    "Carrot": 33910,
    "Ġcompressing": 24422,
    "ĠWilliam": 8929,
    "Ġcert": 9829,
    "etics": 20464,
    "ĠNotes": 32462,
    "ives": 954,
    "Ġ1922": 24784,
    "preposition": 44234,
    "Ġpoisoned": 42128,
    "Ġdark": 2547,
    "ĠFI": 18048,
    "Ġdots": 21890,
    "ĠLeadership": 13772,
    "Angle": 47536,
    "1952": 44052,
    "Ġscreenplay": 24875,
    "ĠCoSm": 37156,
    "Ġchass": 46813,
    "ĠCambridge": 32555,
    "ĠPatagonia": 44811,
    "ories": 1722,
    "ĠToss": 21147,
    "Ġions": 18484,
    "Ġblast": 24733,
    "design": 39167,
    "Ġreporters": 38976,
    "Ġreciproc": 42251,
    "legant": 32479,
    "Strawberries": 41253,
    "Ġbirdsong": 39065,
    "Ġrushing": 19753,
    "2012": 31086,
    "ĠAgnes": 41523,
    "Ġrecyclable": 18207,
    "ĠMargherita": 32810,
    "Ġcavern": 47358,
    "verboard": 38841,
    "Ġprosecutor": 42257,
    "Ġdiscouraging": 42088,
    "Ġesp": 3434,
    "alted": 13688,
    "Ġkit": 3889,
    "oqu": 19020,
    "Ġwar": 3062,
    "329": 48432,
    "Ġ71": 20900,
    "ĠDrag": 44931,
    "ĠWonderful": 41999,
    "burg": 10604,
    "ĠCrohn": 49484,
    "ĠForces": 31032,
    "Ġpreparing": 7212,
    "ĠCommodore": 41389,
    "299": 31690,
    "Ġenforcement": 11349,
    "ĠGPTs": 38964,
    "Ref": 11751,
    "Outdoor": 32382,
    "Foot": 27119,
    "ĠCloset": 37430,
    "ĠFlask": 22917,
    "Ġparity": 41126,
    "Ġcongratulations": 30499,
    "IIT": 27564,
    "Ġkinder": 44204,
    "bohydrates": 30280,
    "Ġtira": 46384,
    "Ġoffering": 4057,
    "consum": 7978,
    "Ġbill": 5872,
    "Ċ": 203,
    "ĠFormulate": 37245,
    "Ġlimes": 28854,
    "Ġvenomous": 39793,
    "ĠTranslate": 26105,
    "Ġbunch": 24066,
    "pr": 1398,
    "Ġmile": 10916,
    "ĠLamarck": 28690,
    "ndoe": 25802,
    "Ġcx": 43134,
    "Ġdread": 20787,
    "Ġsign": 927,
    "ĠEy": 36452,
    "Ġpopulous": 12465,
    "Ġproducer": 16107,
    "Ġcurrency": 8171,
    "November": 31731,
    "isse": 25808,
    "ĠSecretary": 37512,
    "occur": 36409,
    "iza": 17592,
    "Ġprobiotics": 37028,
    "imited": 13585,
    "ĠFunction": 13179,
    "Ġisolation": 9216,
    "Ġindustrialized": 31266,
    "iably": 34484,
    "Ġpeasants": 32754,
    "Ġcuts": 12832,
    "Ġhop": 6424,
    "akitori": 45884,
    "Ġremoves": 16508,
    "Ġoutfit": 8976,
    "%;": 18720,
    "Ġlanded": 12178,
    "Ġseren": 10248,
    "device": 27755,
    "ĠSit": 23615,
    "Ġplastic": 3047,
    "Ġcolum": 3255,
    "Ġgardeners": 41463,
    "ĠRural": 33198,
    "ĠSwan": 41490,
    "Pat": 15002,
    "ĠElizabeth": 9780,
    "offrey": 32287,
    "ĠExtracting": 45337,
    "ĠWeasley": 19655,
    "Ġlabeling": 19453,
    "ĠResponse": 366,
    "ĠScientific": 20331,
    "Ġdefin": 3623,
    "Ġadhering": 21537,
    "VIDIA": 33770,
    "Ġ1814": 47762,
    "Ġcufflinks": 42427,
    "Monet": 37285,
    "ĠOutsourcing": 35227,
    "Ġgeneralize": 15999,
    "Ġattuned": 36692,
    "ĠCasual": 32807,
    "ĠOahu": 47090,
    "Ġloans": 8919,
    "ambi": 44577,
    "425": 35998,
    "Ġpunishment": 10893,
    "Ġelectro": 19111,
    "lor": 5880,
    "Ġquadrup": 48426,
    "Ġcongest": 6780,
    "Ġsanitation": 16898,
    "anity": 27205,
    "Ġadolescent": 28061,
    "Ġindividualism": 23238,
    "ĠDecision": 8010,
    "itted": 21124,
    "Deploy": 32428,
    "Ġintrovert": 34016,
    "Ġbake": 8046,
    "ĠShiva": 38872,
    "Should": 24320,
    "mse": 40283,
    "Ġwhiten": 42275,
    "border": 22235,
    "Ġprogress": 2237,
    "wracking": 36173,
    "male": 40289,
    "ĠVIP": 36700,
    "debit": 35095,
    "ĠThroat": 47548,
    "Ġpudding": 24062,
    "Ġtechnical": 4138,
    "Ġtakers": 46385,
    "ĠDepartmentID": 25000,
    "Ġsyntax": 6822,
    "Ġinfuser": 43922,
    "guard": 37204,
    "Ġwet": 7180,
    "LinkedList": 32894,
    "chest": 21098,
    "Ġsemin": 23360,
    "Then": 12156,
    "Ġbrushes": 20674,
    "Ġdivergent": 30400,
    "Ġpaycheck": 38864,
    "iential": 34883,
    "borg": 46216,
    "Progress": 47692,
    "stac": 4861,
    "either": 42970,
    "ĠStrengths": 49158,
    "Ġpione": 15033,
    "Please": 4725,
    "iliate": 21898,
    "Ġregretting": 48865,
    "vro": 46334,
    "<mask>": 4,
    "tuned": 12031,
    "Ġphotovolta": 15673,
    "Expl": 9596,
    "ĠBab": 23182,
    "Ġorb": 8941,
    "orrow": 4494,
    "etitive": 20129,
    "ĠAutumn": 29260,
    "lli": 32084,
    "diff": 21099,
    "ĠKansas": 22393,
    "Ġinterlocking": 38575,
    "ork": 1098,
    "ĠScale": 31117,
    "ĠVis": 4926,
    "ĠSeed": 44300,
    "mad": 46294,
    "Ġprobability": 4350,
    "Ġamaze": 13846,
    "vision": 5497,
    "Ġsa": 979,
    "Ġsight": 4600,
    "ĠSymbol": 21724,
    "Ġcoating": 23716,
    "rick": 20768,
    "Ġvampire": 25723,
    "Ġvel": 7914,
    "Conversational": 41176,
    "kes": 4869,
    "notation": 47778,
    "ĠDevelopments": 38990,
    "ĠKem": 43893,
    "ungary": 19147,
    "ĠStarbucks": 27651,
    "ĠDevelops": 44305,
    "Ġrotational": 26834,
    "Ġspreadshe": 10233,
    "Ġsweep": 12911,
    "alination": 36229,
    "Ġcivilian": 21682,
    "Ġlanes": 13257,
    "Ġshiny": 16813,
    "Key": 12048,
    "><": 9251,
    "ĠFib": 18049,
    "strawberries": 36256,
    "Sides": 36070,
    "ĠFlesch": 42715,
    "Ġreplies": 20621,
    "ĠSuper": 9024,
    "none": 21856,
    "velop": 737,
    "Ġmittens": 48019,
    "Ġboycott": 32446,
    "apole": 47122,
    "pring": 8028,
    "motion": 43009,
    "Ġnoble": 15269,
    "ĠSully": 46744,
    "ĠGentle": 24706,
    "----------------": 3906,
    "rological": 23265,
    "ĠRemind": 22061,
    "ĠBurundi": 31365,
    "Ġpresidency": 17038,
    "Ġtheat": 19545,
    "ĠCombating": 49352,
    "Trike": 37672,
    "enburg": 46413,
    "Ġenthus": 7500,
    "Ġcryst": 8181,
    "etheless": 18773,
    "DI": 22653,
    "ĠGrey": 26940,
    "Â·": 46360,
    "Ġcoverings": 41465,
    "Ġinfotain": 29089,
    "Lady": 46104,
    "requisites": 48921,
    "rarian": 43031,
    "Ġcauses": 3545,
    "Ġtranslates": 13047,
    "·": 120,
    "Ġmarsh": 16400,
    "oting": 14774,
    "ĠcurrNode": 23453,
    "enas": 43115,
    "lambda": 46292,
    "Welcome": 8421,
    "Ġnationalist": 24327,
    "Ġnightlife": 20583,
    "ĠAutomated": 14847,
    "Ġdeveloper": 8053,
    "Ġdisplaying": 9769,
    "Ġsterile": 39881,
    "Ġbeverage": 14279,
    "Evening": 37501,
    "Ġbicarbonate": 33912,
    "ĠGeorg": 17475,
    "awning": 36983,
    "--------": 1756,
    "ĠShared": 33613,
    "mut": 38034,
    "Ġhom": 5259,
    "Ġtackles": 33889,
    "Baby": 34386,
    "Ġplot": 6710,
    "ĠCinderella": 25246,
    "ĠGloves": 35841,
    "ĠUrban": 16361,
    "positions": 44160,
    "MM": 23528,
    "Ġcharacterization": 41077,
    "ĠRen": 5491,
    "anks": 5617,
    "Item": 12869,
    "Ġmayor": 18836,
    "Ġprofessional": 2488,
    "Ġinvestigate": 10008,
    "ĠEmbrace": 24446,
    "Ġpreceding": 24443,
    "Dealing": 44461,
    "ths": 33251,
    "ieties": 36909,
    "Ġflourish": 15855,
    "dry": 38000,
    "Ġphysiology": 25644,
    "FDA": 42841,
    "Soci": 36071,
    "Ġaquarium": 22561,
    "Ġcub": 8076,
    "Measuring": 49888,
    "rehens": 15236,
    "ĠDrip": 43582,
    "Ġtailor": 6886,
    "ĠHarrison": 42311,
    "Ġfulfilled": 15546,
    "Ġalveoli": 29818,
    "Ġchapter": 14518,
    "Ġfog": 15612,
    "Ġfairer": 39920,
    "Ġsprinted": 37681,
    "ĠJoint": 32098,
    "ĠInj": 29787,
    "rip": 6957,
    "Ġconsistently": 5958,
    "ĠMinor": 32502,
    "Ġsouthwestern": 28515,
    "igor": 18520,
    "ĠDeclaration": 10420,
    "ACT": 25730,
    "---------------------|": 37499,
    "Ġ-------": 28613,
    "Ġdownfall": 20567,
    "ĠNiels": 42037,
    "Percentage": 35885,
    "Ġsulfuric": 49013,
    "Ġradiology": 37025,
    "Atom": 48139,
    "ogging": 10684,
    "Fin": 12958,
    "fledged": 46245,
    "Package": 42498,
    "RF": 46146,
    "ĠDecentralized": 45591,
    "ĠStephen": 19738,
    "Ġarea": 1674,
    "Ġplummeted": 37740,
    "Ġmockup": 39666,
    "llie": 34873,
    "ĠRMSE": 36325,
    "inite": 36188,
    "Ġfloors": 13016,
    "ĠBreat": 21176,
    "Reduce": 19192,
    "ĠCozy": 37155,
    "Ġsunbeams": 49998,
    "rd": 12209,
    "Ġwary": 21879,
    "reverse": 18756,
    "Ġspecifications": 10544,
    "ĠWeek": 19075,
    "ĠWoo": 34780,
    "ĠLeads": 44736,
    "ĠAdjective": 20220,
    "Ġparable": 47529,
    "ĠWays": 29900,
    "ycle": 6700,
    "Ġmemor": 5442,
    "Ġexpresses": 8288,
    ")**": 22645,
    "Ġinnovative": 4194,
    "ĠAstronaut": 32785,
    "}}": 43077,
    "Ġethically": 18357,
    "ĠColombian": 49139,
    "AML": 42792,
    "Ġlocated": 3398,
    "Ġsynchron": 14458,
    "Ġeyewear": 47665,
    "erge": 8814,
    "lightly": 35122,
    "tweets": 40320,
    "Ġoverrun": 47172,
    "ĠPhosphorus": 41356,
    "girl": 42983,
    "Ġtoe": 27213,
    "rospective": 25590,
    "Ġparole": 38774,
    "ĠHall": 32010,
    "Ã·": 30697,
    "Ġpersonalized": 2631,
    "Ġconfigure": 22966,
    "Ġhomonym": 48252,
    "ĠStratus": 31338,
    "Ġplaying": 3110,
    "ĠStartup": 44287,
    "Ġprefixes": 35640,
    "otch": 46670,
    "ĠOld": 13602,
    "Ġwrapping": 21732,
    "ĠAim": 9995,
    "ĠFest": 19076,
    "Ġeasily": 2464,
    "ossal": 36776,
    "Ġslash": 36835,
    "Ġorchestrated": 49538,
    "ĠMarkup": 22520,
    "shore": 29218,
    "Ġlegis": 8590,
    "Ġwand": 6631,
    "Ġiii": 33556,
    "Morning": 30637,
    "Ġcertified": 21737,
    "237": 32528,
    "ward": 1067,
    "Ġfresh": 2566,
    "Ġdevelopmental": 24774,
    "yramids": 15568,
    "plural": 40683,
    "Ġsilvery": 32407,
    "Ġsuffocating": 44561,
    "remes": 26455,
    "Ġunhelpful": 32066,
    "Ġsatirical": 36826,
    "ĠIterative": 35636,
    "Ġris": 1215,
    "ĠWorld": 2869,
    "Ġvariation": 12233,
    "Ġchess": 8350,
    "Texas": 40005,
    "Ġrefactor": 36690,
    "Ġplanting": 9320,
    "ĠToulouse": 50070,
    "ĠPredictions": 25887,
    "utions": 2130,
    "ĠMagical": 35535,
    "chemist": 22090,
    "Ġetched": 19975,
    "Ġtelegraph": 32409,
    "ÿ": 192,
    "guess": 31314,
    "performance": 19865,
    "ĠAustralian": 20323,
    "ĠKepler": 34020,
    "Ġtext": 973,
    "ĠXbox": 27536,
    "ĠDenial": 35567,
    "fast": 4214,
    "Ġstabilizing": 34206,
    "Ġcontractions": 24262,
    "iery": 43984,
    "CDN": 25575,
    "Ġsubmits": 31537,
    "ĠRainy": 35529,
    "'?": 17976,
    "Airbnb": 39538,
    "Ġboth": 1094,
    "ĠGreen": 5789,
    "Course": 23991,
    "etops": 28856,
    "Ġdescent": 11856,
    "Ġstimulating": 17274,
    "ĠAria": 21158,
    "Painting": 21427,
    "Ġautomate": 5402,
    "IAC": 40137,
    "Equipment": 35690,
    "tect": 17577,
    "alt": 22718,
    "Ġ44": 13949,
    "ĠGrandma": 48589,
    "ĠStomach": 47257,
    "ĠExperimental": 44583,
    "Ġhub": 16407,
    "ĠVortex": 47367,
    "Reorder": 22455,
    "Cal": 4480,
    "Ġanalys": 16278,
    "Ġflowcharts": 36833,
    "ĠSeventh": 47873,
    "Ġdiscrepancies": 21424,
    "estial": 10218,
    "Ġlizard": 30760,
    "ĠTen": 25215,
    "________________________": 48579,
    "vidia": 34518,
    "ADA": 48606,
    "ĠMt": 46905,
    "ouds": 4852,
    "Ġposed": 17405,
    "adding": 43365,
    "Ġtoasters": 38167,
    "diagnosis": 27511,
    "ĠAttack": 32477,
    "Ġspiritual": 12506,
    "ĠJuice": 22107,
    "Ġcompromises": 41783,
    "ĠRhododend": 49004,
    "Ġseedlings": 31398,
    "ĠLawyer": 44792,
    "ĠBi": 10867,
    "ĠJung": 47230,
    "Ġbeyond": 4323,
    "Ġolig": 22260,
    "Ġvowels": 13336,
    "Ġexits": 23155,
    "ĠComfortable": 23309,
    "endof": 370,
    "ĠIncorpor": 8119,
    "ĠHigher": 16565,
    "Ġbuns": 26987,
    "Ġaxial": 48510,
    "Ġwarrants": 48987,
    "Ġaccol": 29948,
    "Sus": 31738,
    "Ġpyramid": 16602,
    "Ġstands": 6187,
    "orts": 1789,
    "Ġfuel": 4416,
    "Ġfastest": 10084,
    "Ġcoup": 41552,
    "Escape": 32993,
    "`)": 14886,
    "ĠMadagascar": 32618,
    "mouth": 12437,
    "ĠPsychology": 24437,
    "Ġwrinkle": 34002,
    "Merge": 25748,
    "Ġperipherals": 17325,
    "Ġbehavi": 1544,
    "Ġeraser": 37559,
    "Ġeveryday": 5484,
    "ĠReasoning": 42540,
    "Ġcoin": 9894,
    "Ġcasual": 8839,
    "Ġobvious": 13868,
    "ĠAgricult": 9816,
    "Ġcredentials": 14685,
    "Ġraster": 47269,
    "Ġhangman": 35594,
    "Ġinac": 11592,
    "ĠStatistical": 24955,
    "Ġsplits": 22486,
    "Ġindig": 36625,
    "ĠPlaystation": 41646,
    "ĠMarco": 21684,
    "ĠBatman": 39235,
    "ĠInstruments": 37673,
    "ĠPassengers": 44826,
    "Ġomniv": 20385,
    "bial": 34456,
    "Ġbreakout": 30043,
    "Ġsocial": 1055,
    "Ġvers": 2840,
    "Ġbusy": 5755,
    "Ġintersect": 12813,
    "Ġimperf": 27628,
    "Ġattorney": 24491,
    "Ġbravely": 18377,
    "ĠFreezing": 49018,
    "+...": 40054,
    "roma": 26558,
    "ĠAutonomous": 15105,
    "ĠConsum": 11496,
    "ĠHopkins": 42355,
    "-]+@[": 34126,
    "Fro": 32994,
    "ĠLagos": 43654,
    "Ġtwentieth": 33392,
    "Habit": 33005,
    "Ġflashbacks": 41758,
    "ĠEqual": 31403,
    "erate": 3575,
    "ĠBrid": 36471,
    "Ġattor": 21579,
    "Ġfalaf": 45159,
    "Ġfisheries": 34164,
    "iding": 3973,
    "ĠLentils": 24714,
    "cons": 13008,
    "Ġdist": 1182,
    "Ġdeg": 2515,
    "rich": 6441,
    "Ġibuprofen": 26360,
    "Ġbiographies": 44060,
    "asper": 26491,
    "arion": 38179,
    "Ġbites": 25196,
    "Ġguardians": 21355,
    "ĠDisplaying": 41979,
    "ĠForce": 18591,
    "eties": 15170,
    "Ġbudge": 47770,
    "Ġwades": 46451,
    "Cow": 37897,
    "omp": 1303,
    "Ġunequal": 18913,
    "ĠRe": 1274,
    "Ġmins": 22817,
    "Energy": 20947,
    "!\".": 40045,
    "Ġubiquity": 37556,
    "ĠArm": 12574,
    "mos": 36141,
    "Confirm": 35740,
    "Ġobscuring": 45428,
    "Ġengagements": 27477,
    "Ġpoured": 23430,
    "fog": 46239,
    "Ġze": 14893,
    "Ġcomparis": 5303,
    "Ġunders": 13419,
    "Ġsav": 2927,
    "el": 384,
    "ĠPapers": 40667,
    "Ġexceeds": 17049,
    "BA": 10726,
    "ĠGreenstone": 44597,
    "Ġallowed": 4978,
    "Ġproactively": 21152,
    "Ġguillotine": 41097,
    "Ġspyware": 37696,
    "ĠLeaders": 15257,
    "Entropy": 42188,
    "Ġdomino": 33697,
    "ĠMacro": 32546,
    "Ġoutcompete": 45849,
    "Ġchairs": 10625,
    "Ġmapped": 33142,
    "ĠGrove": 45077,
    "Ġpersistence": 14368,
    "Wolf": 31752,
    "Ġmentioning": 26159,
    "Ġwaterfall": 15813,
    "Ġaffected": 5376,
    "jectives": 21560,
    "ĠSimple": 12495,
    "Remember": 6933,
    "ĠWayne": 29454,
    "Ġanaer": 45342,
    "Ġredemption": 23298,
    "Ġeffortless": 19957,
    "Ed": 26381,
    "Ġstubborn": 22639,
    "Ġcanopy": 14636,
    "Ġreplacing": 8142,
    "Ġaurora": 49611,
    "ohndoe": 26005,
    "Ġbuoyancy": 45740,
    "heritance": 25865,
    "ĠHonduras": 34352,
    "DPH": 17280,
    "Ġnote": 3059,
    "ĠCas": 19325,
    "ĠTuring": 10978,
    "Ġlug": 18259,
    "Ġrefused": 12904,
    "RI": 11898,
    "ĠProjects": 23414,
    "ĠSorrow": 46737,
    "ĠTem": 8607,
    "Ġbanners": 35155,
    "Ġunint": 11775,
    "shuffle": 38994,
    "Ġflows": 8005,
    "ĠIX": 40473,
    "ĠFluff": 30412,
    "Ġpolish": 33439,
    "izability": 34723,
    "upid": 29105,
    "Ġvitro": 49201,
    "ĠHazardous": 40739,
    "etah": 12149,
    "Ġdistinguished": 22127,
    "ĠPhoe": 36966,
    "Ġnoticing": 32059,
    "rossed": 38793,
    "ait": 9337,
    "Ġimparting": 29853,
    "Ġspo": 4730,
    "ĠTears": 28869,
    "Ġgeologic": 39032,
    "written": 8346,
    "Ġparties": 4663,
    "Ġimmersed": 22513,
    "Diagn": 27749,
    "ĠRaphael": 31673,
    "eterias": 41561,
    "ĠSome": 2003,
    "Ġunwelcome": 44550,
    "rac": 33191,
    "Ġforeboding": 26680,
    "hex": 34542,
    "Ġpremises": 14849,
    "ĠEncyclopedia": 42621,
    "Lightning": 42240,
    "ĠMongoDB": 19233,
    "Ġmamm": 4645,
    "Ġcafeterias": 41750,
    "Ġliquidity": 26857,
    "ĠSunday": 16929,
    "xing": 34521,
    "Historical": 35696,
    "Ġsouthern": 12412,
    "Ġdisappearance": 22928,
    "ĠMixed": 22957,
    "Ġmiso": 30152,
    "vivacious": 43061,
    "ichever": 41946,
    "Ġentries": 17420,
    "ĠPursuing": 34226,
    "Ġrevolutions": 23842,
    "Ġbureau": 36233,
    "Ġmobilize": 30074,
    "ĠStudents": 10555,
    "ĠLEGO": 38547,
    "ĠMA": 19339,
    "ping": 26436,
    "ĠRefrig": 25550,
    "ĠContent": 7594,
    "ĠMia": 9934,
    "\"**": 35985,
    "Ġfoothold": 42584,
    "Ġabduction": 46953,
    "ĠButter": 11132,
    "Ġcapsu": 36770,
    "Ġpooling": 18937,
    "Customer": 4516,
    "ĠAdopting": 23726,
    "ĠGap": 34829,
    "Ġscoops": 36581,
    "ĠEthiopia": 20334,
    "Everybody": 48553,
    "Ġflair": 34919,
    "ĠExperience": 8459,
    "Ġthought": 3071,
    "measure": 23744,
    "ui": 33093,
    "represented": 23031,
    "ĠolleH": 42262,
    "Ġlaz": 26672,
    "Select": 6643,
    "ĠPayments": 39288,
    "eron": 19031,
    "Ġtink": 40358,
    "ĠGaut": 43625,
    "DBMS": 19482,
    "Ġsizzling": 43124,
    "ftersh": 50003,
    "1901": 44050,
    "Risk": 40182,
    "Ġgaps": 13694,
    "Ġenvelop": 12803,
    "Ġcomeback": 47581,
    "Ġlitter": 14555,
    "ĠChristian": 13432,
    "Ġmemorization": 29293,
    "Ġmsg": 49910,
    "Ġmythological": 37287,
    "thirds": 23628,
    "Ġreluctant": 29548,
    "Ġrevered": 22498,
    "Lau": 36047,
    "Ġdispensed": 49226,
    "ĠCongestion": 29359,
    "ĠCast": 18037,
    "ĠSteady": 31318,
    "Ġpretty": 14013,
    "Ġstraw": 7353,
    "Ġgums": 46585,
    "Numerical": 45357,
    "Ġdevoured": 38724,
    "email": 7972,
    "ĠArgentina": 17134,
    "Happ": 46073,
    "ĠChristopher": 17699,
    "Innovative": 37744,
    "ĠFrancis": 22938,
    "Ġripen": 31334,
    "ayas": 46683,
    "ĠAntibiotics": 48397,
    "Caprio": 28585,
    "Ġlooked": 5297,
    "itive": 967,
    "Ġapproaches": 5146,
    "cor": 14747,
    "ĠCellular": 45024,
    "THE": 42176,
    "margin": 21389,
    "Ã©s": 44466,
    "Ġcompleteness": 28162,
    "Ġinspires": 18133,
    "production": 19814,
    "environment": 34545,
    "Neurons": 44531,
    "Ġgenres": 10348,
    "lobal": 5027,
    "Ġwinners": 24322,
    "Ġcomposting": 10106,
    "ĠAirport": 17482,
    "Ġobserved": 7273,
    "ĠGoldilocks": 35582,
    "Ġfunctionalities": 15555,
    "848": 18401,
    "ĠForgotten": 41070,
    "OP": 10908,
    "Ġeffic": 1184,
    "Ġplunging": 42307,
    "Black": 19718,
    "Ġentwine": 49517,
    "Ġ});": 44277,
    "Ġillust": 5684,
    "Baked": 42802,
    "Ġsuppressed": 33626,
    "ĠProponents": 34995,
    "ĠStorytelling": 25630,
    "Ġwings": 6069,
    "Ġconceptual": 25401,
    "Ġflo": 6816,
    "esterol": 9909,
    "Ġoverheads": 48852,
    "Ġdiversity": 4429,
    "aeb": 44593,
    "Ġmammary": 33773,
    "ĠUt": 5754,
    "ogn": 1436,
    "Ġcleanest": 41147,
    "ĠDescription": 12834,
    "Ġ1440": 37052,
    "Ġdares": 38185,
    "ĠEssential": 29430,
    "checkout": 37361,
    "ohama": 35013,
    "avoidable": 45736,
    "bast": 34457,
    "Ġwa": 2797,
    "ĠKnow": 7251,
    "IX": 42858,
    "Ġignition": 35400,
    "stylesheet": 35950,
    "Ġcoercion": 42731,
    "shirt": 13531,
    "Ġintergovernmental": 32079,
    "ĠMeditation": 12919,
    "Ġdeceit": 26994,
    "ĠYu": 43837,
    "ĠConstitution": 6549,
    "Ġfibers": 12346,
    "have": 15746,
    "Ġcontroversy": 22144,
    "imate": 934,
    "Ġ1960": 11484,
    "Ġelders": 24946,
    "Ġdischarged": 34820,
    "ĠElimin": 17268,
    "Ġunic": 12898,
    "Avocado": 45097,
    "ĠMaterial": 31998,
    "Ġgase": 28862,
    "ankind": 47527,
    "ĠLED": 8113,
    "Ġpinpoint": 22162,
    "anko": 33547,
    "Ġcook": 2410,
    "Ġsynthesizer": 49189,
    "ĠTerms": 37370,
    "Ġpitching": 32588,
    "love": 16942,
    "ĠBrian": 40724,
    "ĠAutomobiles": 44630,
    "late": 5180,
    "Ġembedding": 25008,
    "ĠAccept": 35392,
    "72": 11897,
    "umetric": 43408,
    "ĊĠĠĠĠĠĠĠĠĠĠĠĠĠĠĠĠĠĠĠĠĠĠĠĠĠĠĠĠĠĠĠĠĠĠĠĠĠĠĠĠĠĠĠĠ": 33883,
    "Ġtelepathically": 49699,
    "Ġcriticism": 12677,
    "Ġinterp": 3794,
    "Ġmetro": 33436,
    "ĠFerr": 39517,
    "ĠRotten": 42444,
    "Ġlearner": 18085,
    "Ġbiased": 9062,
    "ages": 926,
    "image": 15468,
    "ĠSPF": 35827,
    "confident": 33975,
    "Ġkinetoch": 44877,
    "Ġbarking": 17657,
    "ĠMartha": 22774,
    "ĠHagrid": 39986,
    "azon": 3717,
    "Ġcorrect": 1917,
    "Ġexplicit": 7053,
    "ni": 20442,
    "ĠOil": 18558,
    "Ġscratches": 44831,
    "Ġjournals": 23470,
    "Ġbunny": 31471,
    "118": 41294,
    "una": 7553,
    "Ġleapt": 30834,
    "ĠGoals": 13865,
    "Ġrandomized": 31187,
    "myArray": 41462,
    "Ġdiscriminative": 41540,
    "ĠTransmission": 29242,
    "itage": 9621,
    "=": 33,
    "Ġincluded": 6372,
    "inked": 8918,
    "Ġseemingly": 14826,
    "Ã³nde": 49170,
    "Ġreckless": 24460,
    "Ġadmin": 17384,
    "Ġarguments": 5674,
    "ĠVienna": 26354,
    "Ġclung": 34806,
    "Ġdispos": 6356,
    "Ġdivisible": 7431,
    "ĠPlatform": 14818,
    "ĠHoliday": 32605,
    "Ġkernel": 21801,
    "learning": 14691,
    "call": 31759,
    "Ġchemical": 3394,
    "igsaw": 31472,
    "Ġring": 12547,
    "Ġtawn": 46389,
    "Ġdeplete": 27285,
    "ĠBetter": 7896,
    "ĠOhm": 44961,
    "iness": 772,
    "agonist": 4979,
    "Ġdoorway": 48218,
    "racle": 18017,
    "())": 11065,
    "ĠEb": 28044,
    "Ġlightheadedness": 49928,
    "Ġhairs": 48248,
    "ĠSolitaire": 44534,
    "Ġtru": 1349,
    "Ġcommonplace": 26665,
    "Ġtempura": 42004,
    "ĠProcrastination": 27438,
    "ĠSurvival": 39842,
    "ĠReferences": 28440,
    "Ġcirculates": 44956,
    "Ġalcohol": 9262,
    "Ġward": 38149,
    "Ġmelodies": 16158,
    "should": 38992,
    "Ġmisused": 25477,
    "coronavirus": 37454,
    "Ġtango": 37220,
    "Ġempower": 9854,
    "ĠAncient": 12565,
    "Ġgrabs": 33450,
    "blood": 14969,
    "Ġdefic": 23261,
    "imeter": 7002,
    "Ġspecification": 29086,
    "ĠChange": 6786,
    "estern": 6523,
    "Ġmetamorphosis": 30517,
    "Ġshru": 17379,
    "Ġultimately": 3911,
    "Defining": 44854,
    "ĠNew": 2474,
    "Indulge": 44635,
    "Ġchambers": 18698,
    "ĠCollaborate": 12254,
    "Ġloader": 48092,
    "Well": 17338,
    "Ġpreschool": 31081,
    "Ġsofter": 32563,
    "Ġnegativity": 30042,
    "ĠAutonomy": 39101,
    "Ġcumin": 13684,
    "Ġobstacles": 5746,
    "ĠSneakers": 45655,
    "Ġmerchand": 23004,
    "Ġprior": 2860,
    "flakes": 33864,
    "lantic": 46285,
    "***": 12549,
    "Ġquestions": 2146,
    "Ġfluff": 32389,
    "Ġvolcanoes": 17098,
    "Ġhearty": 16290,
    "ĠShack": 44141,
    "ãģ": 12614,
    "Ġrectangular": 9567,
    "mped": 25392,
    "sounding": 31804,
    "Ġvert": 6681,
    "Ġteam": 1214,
    "Ġlocal": 2203,
    "ĠHannah": 40738,
    "stable": 43203,
    "ĠDrama": 23658,
    "ourage": 1935,
    "Ġingenious": 42335,
    "ĠAerospace": 49589,
    "Ġkg": 9126,
    "bout": 40221,
    "Luminance": 49955,
    "Ġbroadcast": 18373,
    "Ġscreened": 48057,
    "ĠLion": 12301,
    "Ġviolation": 20642,
    "ĠXP": 41384,
    "tn": 25165,
    "ĠHindi": 32858,
    "Ġfalcon": 35653,
    "ĠTeacher": 13867,
    "Ġno": 982,
    "Ġmanuscript": 22784,
    "Ġfundraiser": 35702,
    "reasoned": 37820,
    "inary": 2923,
    "Ġrusting": 44652,
    "gument": 21103,
    "Ġsuit": 7044,
    "iles": 4387,
    "cy": 904,
    "August": 23952,
    "Ġconversion": 6911,
    "Ġrestructuring": 35970,
    "ĠQueens": 26200,
    "Ġcellulose": 24807,
    "Ġecology": 23771,
    "ugar": 11125,
    "80": 5313,
    "ĠKeeping": 11634,
    "ĠRewrite": 21433,
    "ĠMedia": 7173,
    "ĠForbidden": 36755,
    "Quantitative": 48336,
    "Ġracing": 16659,
    "Ġdebilit": 47863,
    "unte": 6299,
    "Ġadorned": 15586,
    "ĠIndirect": 47623,
    "ĠAlternatively": 11394,
    "ĠSabha": 29588,
    "ĠBourbon": 37804,
    "ens": 757,
    "ĠBirth": 12999,
    "Ġtransitions": 17019,
    "stack": 24074,
    "Ġclim": 4328,
    "ĠLeast": 35231,
    "ĠEmmanuel": 35865,
    "ĠVillage": 27419,
    "prior": 27909,
    "Ġdebts": 13213,
    "Ġlocations": 5700,
    "Ġaging": 14193,
    "FS": 15000,
    "ĠCoronavirus": 20654,
    "John": 3065,
    "Ġreading": 3816,
    "ĠBunker": 46940,
    "interactive": 41299,
    "Ġplastics": 7183,
    "Ġcakes": 15030,
    "Ġfeather": 9154,
    "Revise": 24844,
    "ĠMoby": 39779,
    "quoise": 24640,
    "expect": 47606,
    "ĠColorado": 16545,
    "Ġtoo": 1858,
    "ĠPain": 13830,
    "CREMENT": 32805,
    "Ġpropell": 41655,
    "Ġresiduals": 42391,
    "Ġpara": 44020,
    "ĠSummarize": 18940,
    "kindness": 45005,
    "Ġcuddling": 49384,
    "ascar": 31184,
    "var": 20106,
    "gevity": 14638,
    "Ġprayer": 30432,
    "Ġdiscourse": 21582,
    "Ġfarewell": 25650,
    "Ġrepertoire": 49360,
    "ĠDesigner": 17084,
    "ĠCred": 31960,
    "ĠFAQ": 20514,
    "Ġcharset": 22379,
    "ĠTigris": 46618,
    "Ġeasy": 1728,
    "Ġsunbathing": 35854,
    "ĠAttitude": 30215,
    "ĠMortgage": 45634,
    "summer": 36164,
    "Ġemit": 7943,
    "ĠFeyn": 48126,
    "Ġcursed": 19489,
    "ÃĹ": 17154,
    "Ġattainment": 29901,
    "Ġreflexes": 37641,
    "Ġinstilled": 43937,
    "Ġexample": 963,
    "pick": 43023,
    "Blog": 32530,
    "Ġpersevere": 27644,
    "ĠCalibri": 41413,
    "ither": 2399,
    "Ġelse": 3382,
    "toCharArray": 40032,
    "Ġinnermost": 31335,
    "ibb": 25923,
    "Ġoutward": 21556,
    "Ġoligopoly": 27796,
    "Ġconceptualization": 47595,
    "Ġunsuitable": 39296,
    "Ġguarantees": 18680,
    "ulph": 34660,
    "MP": 14256,
    "Ġnear": 3141,
    "ĠPreprocessing": 16154,
    "Ġproprietorship": 31647,
    "ĠIdaho": 27086,
    "Savor": 27881,
    "Ġcomparable": 27057,
    "Ġsaid": 3599,
    "Ġcompromising": 20665,
    "Ġvoc": 5634,
    "Ġmold": 15929,
    "Ġneckline": 41840,
    "ankment": 32215,
    "Ġsaus": 20872,
    "Ġkm": 6839,
    "ĠAAB": 29812,
    "ĠNepal": 18063,
    "Ġcluttering": 37383,
    "Ġairways": 33503,
    "rosh": 25821,
    "Ġwidth": 5836,
    "ĠMeth": 29878,
    "Ġ2020": 4270,
    "Ġtrun": 21598,
    "Ġ'))": 41033,
    "Ġunlocked": 23870,
    "ĠVitamin": 15661,
    "Increased": 22591,
    "Ġops": 36206,
    "optional": 8956,
    "uberance": 45358,
    "anoi": 25652,
    "aching": 3208,
    "ĠRichards": 44928,
    "Ġtariffs": 18705,
    "ification": 2053,
    "ĠReplacing": 25996,
    "Ġattractions": 7606,
    "ĠTup": 46606,
    "Ġdiffuses": 43665,
    "Ġseeded": 37324,
    "ony": 2508,
    "Ġalways": 1469,
    "Salaries": 41973,
    "Ġsow": 30715,
    "Time": 8741,
    "Ġsimulations": 11180,
    "Ġpetting": 41403,
    "ĠUncertain": 28200,
    "ĠRepublican": 17102,
    "Ġcrocodile": 29464,
    "Ġ1937": 27455,
    "lusion": 1860,
    "Ġsponsors": 32701,
    "Ġdue": 1977,
    "ĠAcceleration": 39824,
    "holes": 37195,
    "Ġefficiency": 2205,
    "Ġdisreg": 20523,
    "Ġ1915": 32204,
    "Ġenvision": 22305,
    "vast": 40322,
    "Ġfiddle": 33131,
    "Ġhailing": 38358,
    "Ġunst": 14305,
    "Ġfollower": 28992,
    "urious": 13928,
    "ĠEngaging": 11792,
    "Ã¼": 20771,
    "ĠSimpl": 21681,
    "med": 3526,
    "ĠCorporate": 28508,
    "ĠMotivation": 28535,
    "Ġmultiverse": 47988,
    "viation": 27917,
    "Ġsectors": 9539,
    "ĠsoufflÃ©": 37049,
    "Ġboring": 20783,
    "Ġir": 4215,
    "ĠChart": 21227,
    "llas": 25942,
    "Background": 18194,
    "ĠDub": 26590,
    "orant": 43151,
    "Ġinflating": 44919,
    "datetime": 49958,
    "Ġaccompaniment": 35562,
    "ĠPot": 4637,
    "driven": 5092,
    "por": 2078,
    "ificence": 34812,
    "ĠWashington": 7520,
    "Bike": 46002,
    "ĠConan": 43976,
    "Ġoffsets": 47253,
    "ĠAt": 2470,
    "-$": 27835,
    "idge": 3833,
    "Ġforestry": 23764,
    "Emily": 16726,
    "Ġredundancies": 33979,
    "LSE": 37936,
    "ĠHolog": 40731,
    "Ġcheese": 3104,
    "Ġmenu": 4850,
    "equal": 30669,
    "Ġjacket": 14009,
    "Ġpurpose": 2592,
    "Ġlighthouse": 25829,
    "Ġ_________": 30344,
    "Ġeverlasting": 30092,
    "Ġcountries": 1939,
    "ĠSprings": 42035,
    "ĠHarvest": 41717,
    "pacas": 34277,
    "Ġso": 789,
    "SaaS": 34442,
    "Blo": 46005,
    "Ġoint": 46434,
    "Ġbibli": 30524,
    "Ġtreated": 9205,
    "ĠQin": 41291,
    "Ġwipes": 20379,
    "Ġomnivores": 30486,
    "Ġropes": 29003,
    "=(": 21824,
    "Architect": 49740,
    "Ġvoid": 10921,
    "Ġmitigate": 5142,
    "Ġ___________": 42011,
    "Ġfigures": 7215,
    "767": 45984,
    "Ġmanipulator": 48142,
    "Ġmoderating": 36620,
    "Ġrupt": 47341,
    "editing": 38196,
    ".\");": 31007,
    "ĠRegulatory": 27517,
    "ĠSilicon": 29487,
    "Ġpizz": 24060,
    "Ġselector": 28305,
    "ocative": 20494,
    "Ġbullies": 37042,
    "Ġqueens": 37333,
    "accharides": 35898,
    "ĠAretha": 48251,
    "Ġfarm": 3135,
    "Ġcriticizing": 48694,
    "hen": 1265,
    "rails": 46628,
    "Ġcourtyard": 31646,
    "ĠPrincip": 34013,
    "ĠVacu": 23957,
    "ĠMIT": 25899,
    "Ġyeah": 23143,
    "Ġspot": 5954,
    "ĠInflation": 26194,
    "Ġsoaring": 15501,
    "judgmental": 32573,
    "ĠSmile": 32304,
    "Ġpresidents": 19398,
    "17": 3571,
    "Ġdisable": 43618,
    "Ġrejo": 15711,
    "Geometry": 45182,
    "Ġdrizzle": 15427,
    "ĠBilly": 22325,
    "ĠCorporation": 11337,
    "tier": 33091,
    "anthia": 39853,
    "lorn": 43004,
    "Ġbeh": 1228,
    "idence": 2348,
    "Networking": 34212,
    "Winter": 22678,
    "control": 23363,
    "paste": 36158,
    "Ġgrade": 9315,
    "addy": 37198,
    "Ġhelps": 1563,
    "ĠOngoing": 25102,
    "uit": 6646,
    "Ġagg": 8019,
    "1970": 30038,
    "ĠRM": 46635,
    "ĊĠĠĠĠĠĠĠĠĠĠĠĠĠĠĠĠĠĠĠĠĠĠĠĠĠĠĠĠĠĠĠ": 35430,
    "ĠWoolf": 49815,
    "Ġrhomb": 44671,
    "Ġimmun": 15827,
    "Ġrate": 2303,
    "Aloe": 45999,
    "Ġhates": 46551,
    "ĠNeon": 33664,
    "Ġconsulted": 41648,
    "ĠTheo": 31957,
    "ĠMeas": 13761,
    "La": 14611,
    "Ġwindowsill": 28463,
    "Ġ>=": 11323,
    "ĠMice": 38416,
    "iqued": 38647,
    "Switching": 42415,
    "Ġcelebrating": 16009,
    "ĠBroad": 20005,
    "Ġcontacted": 33675,
    "ĠPastry": 48983,
    "ĠDrive": 11724,
    "Meals": 48642,
    "Ġflyer": 31290,
    "ĠMustard": 49157,
    "Satellite": 46168,
    "Ġideally": 25991,
    "Ġdisconnection": 29921,
    "tower": 34513,
    "Sp": 5989,
    "ĠMCU": 46919,
    "Ġdistributive": 28362,
    "afka": 47940,
    "follow": 31777,
    "Ġweeding": 29880,
    "Ġprick": 32083,
    "kinter": 40271,
    "Ġnightly": 47598,
    "Ġrumm": 30980,
    "hello": 12341,
    "ociation": 13968,
    "magical": 39844,
    "Ġ1916": 30017,
    "voiceover": 31561,
    "Ġcake": 3828,
    "Ġfrees": 28252,
    "GC": 46061,
    "ĠEmma": 5463,
    "ĠVegas": 17083,
    "Blu": 42798,
    "Ġnd": 46371,
    "Ġdil": 9988,
    "Divid": 46034,
    "Ġ127": 35093,
    "Ġapparel": 27346,
    "xtures": 16615,
    "Ġsensor": 14079,
    "ĠFederation": 39454,
    "ĠTech": 22439,
    "ĠModularity": 39108,
    "Ġshifted": 14111,
    "Ġdepletion": 17319,
    "94": 15439,
    "Ġfraudsters": 48109,
    "Bud": 40088,
    "Ġrummaged": 49651,
    "Ġgrandchild": 22475,
    "accept": 26555,
    "ĠThin": 27461,
    "ĠAccommodation": 45666,
    "Ġraged": 23707,
    "Ġbackpropagation": 15975,
    "arcastic": 35463,
    "Ġscouting": 47120,
    "Ġimmutability": 32780,
    "<unk>": 1,
    "ĠðŁ": 8129,
    "ĠFocusMax": 48653,
    "Ġrefunds": 32621,
    "pieces": 20326,
    "nds": 2363,
    "Ġmergers": 42002,
    "return": 11627,
    "Ġteenager": 17090,
    "Dogs": 16371,
    "Ġsuper": 2863,
    "523": 40071,
    "Jo": 27126,
    "infandel": 48868,
    "ĠAgroforestry": 48148,
    "Ġinterpreting": 12256,
    "Ġwrath": 27703,
    "netic": 5840,
    "Ġknives": 29035,
    "ody": 1350,
    "ĠJoh": 9727,
    "Ġslowed": 24829,
    "ĠRevenant": 49621,
    "ĠRajya": 45468,
    "ĠFamiliar": 21187,
    "Ġannoyed": 32864,
    "Theme": 24658,
    "ĠHappy": 14298,
    "ilded": 43750,
    "Ġascending": 7818,
    "175": 18366,
    "Ġstagnation": 34215,
    "ĠExpress": 11729,
    "ĠFert": 28959,
    "Ġ\"))": 21181,
    "Closing": 32418,
    ")**:": 23062,
    "Ġdiff": 618,
    "Meas": 39358,
    "obster": 47202,
    "Ġwhitesp": 25075,
    "Ġunattainable": 37827,
    "ĠiCloud": 35052,
    "Ġpri": 40393,
    "ĠresultSet": 43810,
    "Revenue": 26764,
    "Ġstriving": 11859,
    "Ġexude": 39648,
    "osphere": 11432,
    "UT": 31749,
    "Quickly": 39761,
    "Ġflashes": 25966,
    "Modern": 24366,
    "Ġhitting": 15867,
    "Ġprototypes": 20685,
    "Ġrainbow": 10291,
    "Ġskeletons": 26906,
    "Ġallocated": 15551,
    "ĠTouch": 18517,
    "ĠGini": 23666,
    "Ġont": 33211,
    "Ġcnt": 38127,
    "hy": 2760,
    "irement": 8089,
    "ĠAllocate": 21314,
    "pain": 38046,
    "Ġfighting": 8481,
    "Ġinvasion": 13606,
    "Ġboot": 9415,
    "Ġbarrel": 20927,
    "ĠSiege": 46745,
    "after": 20094,
    "Ġankles": 45538,
    "lower": 11353,
    "emy": 8609,
    "ACK": 28471,
    "Ġembryo": 49874,
    "dungsroman": 45891,
    "Ġentail": 32157,
    "Ġemptied": 39150,
    "Ġ',": 31013,
    "Ą": 197,
    "Ġfortitude": 39551,
    "roduct": 4054,
    "Ġartificially": 35111,
    "Ġdecoded": 47205,
    "CB": 25733,
    "Ġharmon": 11259,
    "Ġterminated": 47755,
    "ĠNoble": 27654,
    "pipe": 21465,
    "Ġfled": 33127,
    "fect": 2219,
    "Ġstreamers": 28313,
    "ĠProficient": 25549,
    "ĠHitchh": 38449,
    "Ġtheta": 43113,
    "Scalability": 28416,
    "ĠBears": 29885,
    "Ġwaited": 15531,
    "Incorporate": 35859,
    "Ġgruff": 49132,
    "poke": 35074,
    "ĠSylvester": 40594,
    "Ġwarfare": 18890,
    "Ġimportant": 858,
    "Ġangel": 27989,
    "Ġload": 4161,
    "reast": 30711,
    "Revised": 33673,
    "Ġaircraft": 15204,
    "addBinaryHelper": 37606,
    "Ġfallen": 13976,
    "itably": 23109,
    "Ġwasher": 43574,
    "nets": 25379,
    "ĠeBay": 23125,
    "ĠExc": 13198,
    "Ġprobabilities": 13532,
    "ĠSnorkeling": 49939,
    "Uniform": 39206,
    "Ġrefusing": 23722,
    "result": 6737,
    "Ġcamaraderie": 23980,
    "Ġloun": 15619,
    "Ġfilms": 9806,
    "ĠProviding": 7866,
    "/%": 34372,
    "Ġâī¡": 19195,
    "ĠApplegate": 47904,
    "Box": 40091,
    "ĠSalmon": 15540,
    "Frank": 32824,
    "Ġparse": 26694,
    "':": 4810,
    "Ġdeliberate": 18995,
    "ĠOmn": 40807,
    "Ġtemporal": 28435,
    "Ġsoups": 31201,
    "Gam": 31711,
    "Ġslaves": 19930,
    "ERGY": 29255,
    "Ġcompos": 15063,
    "ĠExample": 12741,
    "https": 8478,
    "ĠAcid": 22518,
    "Ġstrategies": 2526,
    "Stress": 26052,
    "Ġsuperposition": 21654,
    "Ġbouncing": 24595,
    "arters": 14173,
    "Ġsubm": 19118,
    "Ġcomputer": 1220,
    "Ġbasalt": 47587,
    "Ġdormancy": 45256,
    "ĠStuffed": 23487,
    "lling": 3498,
    "Ġ<": 1445,
    "Ġintru": 22339,
    "Indoor": 48371,
    "Ġparaphrased": 49519,
    "Ġjuices": 19157,
    "ĠDead": 32242,
    "Criteria": 25046,
    "ĠIndexes": 39583,
    "Ġunsigned": 41576,
    "Ġheld": 5005,
    "ilis": 36281,
    "Ġmistreated": 37030,
    "ĠRou": 21904,
    "tempt": 5045,
    "tens": 18241,
    "oors": 5544,
    "igion": 24097,
    "Syn": 22672,
    "Ġgibbous": 43274,
    "Ġintimidation": 37419,
    "Res": 5794,
    "Ġreviewed": 17048,
    "ĠAmazon": 3890,
    "Ġeyebrow": 45500,
    "ĠCity": 4745,
    "ĠBusinesses": 11269,
    "acent": 10746,
    "Ġindependent": 4636,
    "iances": 15602,
    "pine": 22247,
    "Ġdeepest": 15210,
    "Categorise": 39106,
    "Ġartifacts": 15722,
    "Ġfeatures": 1348,
    "Ġtweets": 15577,
    "ogonal": 40686,
    "Ġshuttle": 33952,
    "ume": 2985,
    "Ġslowdown": 27510,
    "leted": 46496,
    "sm": 7738,
    "Ġresearch": 1711,
    "ĠRosa": 23942,
    "Ġfeuding": 39607,
    "Ġtanks": 25179,
    "Ġlighten": 24207,
    "ĠMethodology": 42036,
    "785": 40074,
    "ova": 41090,
    "ĠManagement": 5851,
    "powers": 22689,
    "Ġsender": 12973,
    "Ġamateur": 32095,
    "graph": 18232,
    "Ġyard": 13926,
    "---------": 38810,
    "Ġsoar": 17210,
    "Ġconsumers": 4604,
    "Ġautoimmune": 30358,
    "ĠLouisa": 44849,
    "bine": 10729,
    "Ġburg": 35175,
    "Ġcorrectness": 26712,
    "Ġdisrespectful": 26353,
    "Ġrepe": 5134,
    "Ġsuis": 23611,
    "own": 712,
    "ĠcheckInDate": 36893,
    "Ġdiploma": 30338,
    "izable": 7483,
    "ĠBaking": 17812,
    "Ġbish": 23116,
    "Ġbackdrop": 16127,
    "Ġbeetles": 37783,
    "uto": 18511,
    "ez": 29676,
    "ĠSMTP": 37636,
    "lightening": 32267,
    "ĠRadiant": 25613,
    "risk": 13813,
    "akin": 33224,
    ".?": 40055,
    "Ġrustled": 29323,
    "Ġincap": 33281,
    "pert": 15058,
    "Ġcheat": 22816,
    "Ġrewarding": 8887,
    "ĠInspired": 49325,
    "..": 3751,
    "avlov": 26603,
    "ĠAdditional": 17845,
    "sw": 2180,
    "Ġstains": 15936,
    "Ġsubset": 8258,
    "ĠExyn": 33551,
    "Ġabolished": 19500,
    "ĠCycling": 24644,
    "Ġhull": 23127,
    "À": 129,
    "Ġinterrelated": 28128,
    "Ġdeficits": 37630,
    "Ġavoided": 19670,
    "Ġchain": 4257,
    "Ġinfluen": 4962,
    "Ġdisruption": 9633,
    "Ġconverge": 27585,
    "Ġoccupancy": 26884,
    "Ġmacaroni": 22117,
    "Disadvantages": 14729,
    "Ġgifted": 31900,
    "sometimes": 38070,
    "Ġdic": 40445,
    "Ġmetaphase": 34209,
    "ĠGMM": 48928,
    "Ġcrumble": 23282,
    "Ġdrain": 11935,
    "Incre": 13660,
    "ĠLuke": 18691,
    "js": 14890,
    "Ġambitions": 21364,
    "Ġnotebook": 16157,
    "³": 116,
    "Ġbushes": 16835,
    "\"!": 35984,
    "Ġdecided": 3930,
    "ĠBackpack": 26901,
    "Ġdeclares": 22068,
    "dollar": 49845,
    "ĠInvas": 46592,
    "Ġbeak": 23141,
    "Ġfascination": 28432,
    "Ġinnovate": 13745,
    "ĠFloat": 40764,
    "ielding": 15844,
    "Ġ2011": 14663,
    "ĠPickett": 50087,
    "ĠCaesar": 11027,
    "Ġtax": 2419,
    "Ġgeneralizing": 38979,
    "ĠMotor": 21384,
    "iley": 28092,
    "Ġunderworld": 28158,
    "incarn": 41178,
    "Cs": 27850,
    "Ġtypef": 23226,
    "inosaur": 14249,
    "iberty": 9903,
    "Ġresilient": 11326,
    "anship": 18811,
    "ĠStrait": 35754,
    "estones": 43431,
    "spooky": 44241,
    "ĠNarn": 40871,
    "Ġclergy": 28971,
    "Bapt": 36011,
    "he": 264,
    "ensity": 4090,
    "Ġstressed": 11312,
    "ions": 511,
    "ĠPerforming": 49190,
    "Ġtribe": 17524,
    "ĠOlympics": 18191,
    "Ġlemur": 42181,
    "Ġunimportant": 26616,
    "Ġknocked": 26634,
    "Ġmor": 2596,
    "stick": 11415,
    "ams": 4602,
    "Ġmangoes": 35724,
    "haust": 27162,
    "Ġfiguratively": 41957,
    "Ġforwards": 26504,
    "Coco": 36024,
    "Ġdescriptions": 7474,
    "\"></": 17675,
    "Ġdisorganized": 23200,
    "ĠConversational": 39802,
    "soccer": 39964,
    "Ġderiv": 8146,
    "ĠWalrus": 41876,
    "ĠYork": 3783,
    "![": 31685,
    "ĠT": 332,
    "Loyal": 42872,
    "Ġfaraway": 16696,
    "Ġconfig": 9017,
    "uldron": 46676,
    "Ġhesit": 7024,
    "Ġpineapple": 15034,
    "Ġadvancing": 11371,
    "Ġporridge": 34127,
    "ĠLater": 27368,
    "Ġmoods": 22902,
    "ĠIf": 1323,
    "ĠWalls": 46967,
    "Ġtackled": 33890,
    "Ġsubsides": 41516,
    "Ġdep": 1092,
    "Ġslender": 17439,
    "ĠHerbs": 41491,
    "ĠOwnership": 37570,
    "Ġmetaphorical": 22477,
    "ĠJackie": 44393,
    "year": 5382,
    "isms": 3763,
    "Ġcacophony": 45726,
    "uthless": 19982,
    "Ġ+": 877,
    "ĠBali": 29415,
    "Ġletters": 3955,
    "Ġcreaminess": 32359,
    "Ġoverse": 26625,
    "Ġsemantically": 37191,
    "Ġpatrons": 29061,
    "Encourage": 27021,
    "Ġanalyze": 2151,
    "soft": 30690,
    "Ġtherapeutic": 26456,
    "Ġbinge": 29750,
    "Name": 1580,
    "ĠDolphins": 25659,
    "Ġdaughter": 10028,
    "ĠSecondary": 33943,
    "Ġtwisted": 17111,
    "Ġoperate": 5201,
    "Ġ5": 813,
    "Ġgamma": 26497,
    "<?": 36003,
    "ouver": 20785,
    "ĠMadison": 22569,
    "Ġoutsider": 42484,
    "ĠĠĠĠĠĠĠ": 3018,
    "Farm": 30619,
    "Ġpostsyn": 47636,
    "Ġenunciate": 45888,
    "Ġcensor": 36202,
    "Ġwelled": 44522,
    "Alaska": 33745,
    "Mitigating": 49358,
    "Access": 18216,
    "Ġhieroglyphics": 45708,
    "ĠDeals": 31093,
    "Ġunderg": 6144,
    "ĠCarnegie": 33702,
    "being": 2824,
    "37": 8510,
    "Ġball": 3194,
    "Ĝ": 221,
    "ĠInclusion": 30075,
    "Ġknow": 1200,
    "Che": 8238,
    "601": 32434,
    "ĠDick": 11994,
    "racy": 6021,
    "kshake": 27821,
    "Ġsixteenth": 44518,
    "Ġcreate": 986,
    "ĠRansom": 40539,
    "Gram": 46066,
    "xim": 14145,
    "1991": 25398,
    "Ġapproval": 14809,
    "Ġmanaged": 6699,
    "Ġgadget": 14904,
    "ĠScheme": 42015,
    "Wiki": 46200,
    "Ġbraking": 14666,
    "ĠInteresting": 37507,
    "fourths": 45535,
    "Bringing": 16768,
    "ĠJolly": 47231,
    "ĠSemi": 37578,
    "ĠHamlet": 16561,
    "ilize": 6394,
    "Ġswitches": 18593,
    "Ġtk": 22699,
    "Ġ1986": 33530,
    "122": 47720,
    "Ġreach": 1811,
    "ocument": 9545,
    "ibri": 36536,
    "Ġtremend": 11704,
    "ĠKorean": 19104,
    "ĠSie": 40584,
    "asant": 7879,
    "Ġmigrants": 45123,
    "Ġpractically": 31048,
    "ĠRelaxing": 39539,
    "890": 17689,
    "ĠSeven": 18891,
    "ĠEAP": 46899,
    "Ġcliche": 36530,
    "Ġresearches": 39198,
    "XXXX": 39508,
    "344": 48513,
    "Ġriverbank": 39873,
    "Ġtissue": 12263,
    "Ġgazing": 19842,
    "Ġlinked": 5138,
    "ĠPerformance": 11884,
    "Ġextruder": 42342,
    "ĠHighlander": 35289,
    "Ġcylindrical": 24478,
    "Ġtreasured": 26151,
    "Ġ1783": 22464,
    "vegetable": 39765,
    "Ġdecoding": 30943,
    "Ġpreheating": 39511,
    "ĠMassacre": 37366,
    "Ġlively": 8448,
    "ĠDry": 21190,
    "henomen": 4767,
    "Ġarid": 16643,
    "ĠIMF": 42298,
    "Ġheuristic": 19049,
    "Ġunderstand": 1059,
    "Dean": 48127,
    "ĠDue": 10753,
    "Ġconstitutes": 22126,
    "Ġsneaker": 44869,
    "Ġulcers": 49586,
    "LAB": 31728,
    "Mitosis": 35787,
    "Ġoutputting": 33601,
    "ĠCryptocurrency": 30479,
    "erated": 36199,
    "Ġtwigs": 25939,
    "ladesh": 18719,
    "Ġdownpour": 26669,
    "ĊĠĠĠĠĠĠĠĠĠĠĠĠĠĠĠĠĠĠĠĠĠĠĠĠĠĠ": 27642,
    "Ġimbalanced": 33261,
    "Ġpopulace": 45662,
    "with": 13158,
    "Ġraised": 8114,
    "haul": 39314,
    "ĠConquer": 36760,
    "Ġextracting": 11553,
    "Ġnimble": 28858,
    "ĠIran": 20125,
    "Ġtrigon": 20971,
    "oS": 33075,
    "ĠXPS": 30131,
    "Ġformer": 10390,
    "ĠArrays": 31111,
    "Ġrescheduling": 46974,
    "ĠBefore": 5970,
    "expression": 18967,
    "hman": 46265,
    "Endless": 19728,
    "Ġamusing": 29026,
    "Ġbase": 2834,
    "Ġlowered": 17645,
    "ĠSir": 5737,
    "memory": 37704,
    "matory": 16858,
    "Ġcredits": 15385,
    "Ġfoes": 33129,
    "Ġundetect": 39056,
    "Ġ-.": 43682,
    "pear": 34500,
    "Ġvirgin": 31949,
    "Ġneat": 13085,
    "Ġfavour": 27019,
    "Ġsection": 4622,
    "ĠBalancing": 31406,
    "ĠPCA": 33273,
    "eremy": 43443,
    "Ġecotourism": 47683,
    "Celebr": 31702,
    "Ġpixels": 15758,
    "carbon": 17100,
    "ĠWorkspace": 45483,
    "Ġblanketed": 35343,
    "Ġguilt": 18592,
    "Ġ2008": 10198,
    "Num": 19802,
    "Ġcharacterized": 4597,
    "---------------|": 41757,
    "ĠJeans": 33930,
    "Ver": 21451,
    "Ġmayonnaise": 20862,
    "vie": 1077,
    "ĠHist": 7846,
    "ĠSunrise": 24312,
    "Ġcomprehending": 45141,
    "asty": 16820,
    "Lena": 40152,
    "ĠFl": 4918,
    "Ġfirewalls": 13653,
    "Ġconstraint": 29376,
    "ĠCarnivora": 35816,
    "uments": 3030,
    "Ġprogramming": 2445,
    "ĠExpanded": 49230,
    "arded": 23196,
    ".!#$%&âĢĻ*+/=?^": 40057,
    "ĠHighly": 19974,
    "ĠIlsa": 42705,
    "Ġicebreaker": 41350,
    "Ġrationalize": 48974,
    "accuracy": 30269,
    "google": 18361,
    "Ġpesto": 45305,
    "paced": 8702,
    "Ġwhere": 856,
    "EE": 22215,
    "Ġtempt": 14548,
    "Av": 13566,
    "ĠGratin": 41689,
    "rot": 5762,
    "Ġclassics": 24750,
    "ĠAdults": 32143,
    "DU": 37905,
    "levard": 43193,
    "Ġuploading": 26214,
    "study": 32674,
    "ĠTrudeau": 48470,
    "offensive": 36920,
    "Ġscanners": 39950,
    "rase": 1882,
    "Ġreconc": 20353,
    "Ġjoining": 9853,
    "Ġswat": 41101,
    "Ġignorance": 35893,
    "Ġrepurpose": 22807,
    "Ġimpactful": 15504,
    "Ġpostsynaptic": 50119,
    "Ġhomemaker": 48253,
    "Ġprojected": 14936,
    "ĠReality": 10545,
    "Mill": 34426,
    "tering": 4435,
    "Ġmulch": 24597,
    "Ġpromotes": 5411,
    "ĠLaw": 8249,
    "48": 9980,
    ",âĢĻ": 31688,
    "sin": 16944,
    "Ġpurple": 11057,
    "Ġspikes": 24655,
    "Ġmineral": 15660,
    "Ġradioactive": 20661,
    "Ġcompact": 10807,
    "ĠactiveLength": 33637,
    "Ġzones": 11876,
    "ĠRoaring": 29278,
    "ulty": 26587,
    "ĠTwe": 30778,
    "nia": 18747,
    "achian": 46960,
    "arte": 19561,
    "ĠError": 16352,
    "ĠStartDate": 31155,
    "Ġgold": 3596,
    "dogan": 46231,
    "economic": 10988,
    "Ġstress": 1759,
    "Ġbears": 10800,
    "Ġneutr": 17686,
    "ĠHBO": 29893,
    "RUCache": 45832,
    "achine": 1088,
    "Ġselection": 4199,
    "ĠTelecommunications": 49747,
    "Ġthere": 807,
    "Ġ!=": 9915,
    "heights": 43103,
    "Ġretrieval": 9904,
    "Ġvit": 17796,
    "Ġperenn": 27198,
    "ĠApplication": 14822,
    "Ġ},": 14085,
    "ĠUltimately": 5539,
    "ĠPole": 46856,
    "Question": 11808,
    "ĥ": 230,
    "ĠChris": 19906,
    "ĠBatter": 48387,
    "Î": 143,
    "ify": 745,
    "Ġflights": 9942,
    "ĠRachel": 15313,
    "rese": 18753,
    "ĠSomething": 23618,
    "Ġepistemology": 48957,
    "ĠColors": 21280,
    "usai": 46828,
    "Ġlimb": 28250,
    "Consistency": 41772,
    "ķĳ": 36178,
    "ĠYellowstone": 30353,
    "ĠGert": 33346,
    "ĠMonster": 38949,
    "Ġtheano": 40373,
    "ĠPrivacy": 11504,
    "Ġburden": 9396,
    "Ġdoctor": 6301,
    "Ġcongen": 46681,
    "Ġgermination": 45573,
    "Ġnightcl": 44076,
    "Leon": 41834,
    "Ġinterpret": 4148,
    "Ġaching": 40363,
    "ĠDepending": 8264,
    "ĠBrowser": 27023,
    "ĠWhatever": 31092,
    "cra": 4654,
    "Ġhal": 10429,
    "suit": 39012,
    "WASH": 34452,
    "ĠLaz": 32051,
    "crastination": 24987,
    "ĠLex": 24711,
    "Baking": 32980,
    "Ġdemoc": 4993,
    "ĠSanta": 19215,
    "longest": 22550,
    "Ġhatched": 44889,
    "ĠLGBTQ": 19523,
    "Ġarcher": 33337,
    "ivot": 33221,
    "itched": 17567,
    "Ġpremise": 14848,
    "Ġretina": 33456,
    "ĠPlanner": 30166,
    "Ġimputation": 40632,
    "Ġtouchpoint": 41393,
    "Search": 12274,
    "Ġcategorical": 11495,
    "Ġpacked": 6015,
    "Ġfreelancers": 25019,
    "Ġdrinking": 8797,
    "Communication": 21783,
    "nger": 11228,
    "Ġguarded": 21354,
    "Vast": 33037,
    "Ġseashore": 30586,
    "Ġ''": 23734,
    "È": 137,
    "Ġprinces": 34871,
    "adget": 12887,
    "Organize": 14865,
    "Ġpolar": 6982,
    "ĠĠĠĠĠĠĠĠĠĠĠĠĠ": 9313,
    "Ġinference": 17632,
    "ĠNapole": 15589,
    "ĠLand": 10223,
    "Ġtoll": 13577,
    "Ġapocalyptic": 47906,
    "ĠCinem": 32822,
    "Ġfisherman": 31544,
    "ĠVenmo": 48772,
    "Over": 9222,
    "ĠLaura": 30476,
    "Ġtheorist": 49637,
    "Daniel": 37799,
    "Ġethn": 44245,
    "Ġmafia": 40438,
    "ĠBees": 31098,
    "Ġnegotiating": 20362,
    "Finish": 30368,
    "endoftext": 371,
    "Ġquite": 5801,
    "aring": 1791,
    "ĠTerrit": 33997,
    "Ġobligation": 21007,
    "Ġfurnishings": 34319,
    "ĠFelix": 27758,
    "Ġgrowled": 47347,
    "Ġmortal": 25585,
    "ĠCoral": 19185,
    "nextInt": 27667,
    "auty": 14813,
    "ster": 3580,
    "ĠReddit": 26738,
    "Ġtent": 10118,
    "ĠLas": 14417,
    "Ġimplemented": 5391,
    "java": 14891,
    "Ġforks": 36312,
    "Ġaches": 16998,
    "ĠVel": 25975,
    "Ġsaliva": 27442,
    "ĠSelena": 45631,
    "rious": 43391,
    "Ġoutage": 23204,
    "Ġaisles": 39862,
    "ĠDraco": 32619,
    "Ġattachment": 23383,
    "curity": 1737,
    "Ġ'+": 47414,
    "...\"": 16877,
    "Acme": 45268,
    "ĠBerkshire": 39258,
    "forest": 3460,
    "Ġouting": 28996,
    "Ġtrainer": 26098,
    "der": 958,
    "ĠHidden": 25274,
    "ĠCDC": 30385,
    "Ġcrescendo": 35944,
    "ĠProb": 25997,
    "ĠGMOs": 27051,
    "edom": 4230,
    "Ġinvestor": 13025,
    "Ġslit": 31084,
    "ader": 10319,
    "ĠLighthouse": 43653,
    "irds": 7159,
    "system": 43037,
    "Ġadvances": 7264,
    "Ġinvasions": 34326,
    "Ġdrawer": 23312,
    "odes": 3928,
    "Ġreservations": 15881,
    "Stage": 35138,
    "itars": 27195,
    "Ġdifferentiating": 34901,
    "Ġvistas": 30808,
    "Ġsomehow": 29947,
    "Ġyearns": 47416,
    "Ġfortress": 26269,
    "Ġmitigated": 33938,
    "Ġdess": 8869,
    "Ġpixel": 16397,
    "Ġa": 262,
    "Ġgrown": 6153,
    "ĠRecurrent": 21665,
    "Ġapocalypse": 39017,
    "rass": 28797,
    "Ġcontin": 1269,
    "western": 19281,
    "cies": 6128,
    "Ġshopper": 44125,
    "Alt": 42791,
    "Ġflag": 7164,
    "Ġcommanding": 41638,
    "taining": 21571,
    "Ġostrich": 33121,
    "ĠEducational": 14352,
    "ln": 11084,
    "ĠTre": 11091,
    "Ġspecials": 35136,
    "subsequ": 39323,
    "ĠHotel": 17189,
    "Ġinitials": 25490,
    "ook": 867,
    "ĠGate": 14183,
    "ĠConfeder": 34042,
    "Ġsofa": 18179,
    "Ġpyruvate": 35782,
    "udden": 48262,
    "responsive": 23056,
    "Ġsirens": 37738,
    "Ġastronauts": 12265,
    "Ġsmile": 5132,
    "charAt": 33776,
    "âĢĻ,": 18577,
    "Ġms": 40436,
    "Ġwrongly": 44517,
    "ĠAdwords": 47354,
    "fulness": 4905,
    "Piece": 34276,
    "Ġreadjust": 43941,
    "ĠLiverpool": 39912,
    "74": 12783,
    "|.": 40338,
    "ðŁĴ": 23337,
    "ĠFast": 12806,
    "ĠDataFrame": 26065,
    "Ġferment": 35493,
    "Ì¦Ì¦Ì¦Ì¦": 14373,
    "Ġmultiplies": 35380,
    "Ġmeasuring": 8499,
    "olving": 2663,
    "Ġden": 5300,
    "ĠPolitical": 15866,
    "Ġterrified": 26288,
    "Tone": 34444,
    "ĠAchie": 17373,
    "Combinations": 49438,
    "Treasure": 42419,
    "Calcul": 24895,
    "ĠSelective": 44683,
    "ĠBriefly": 39553,
    "Ġinvo": 20540,
    "Ġvotes": 13222,
    "314": 42767,
    "bler": 37990,
    "Ġleakage": 27718,
    "Watching": 36087,
    "ĠUral": 47135,
    "Ġuntil": 1562,
    "Ġencountering": 24950,
    "ĠProtest": 19641,
    "Ġbegan": 2962,
    "Ġsibling": 42018,
    "Ġnuanced": 17118,
    "cerer": 8420,
    "krit": 40270,
    "%).": 27833,
    "Length": 13243,
    "ĠUnex": 43691,
    "Ġunreported": 44987,
    "Hub": 18220,
    "Ġliquid": 6065,
    "Ġwindow": 5524,
    "Ġmesmer": 14376,
    "anda": 9884,
    "created": 42949,
    "neg": 27354,
    "pop": 13156,
    "Ġamusement": 18567,
    "andez": 40728,
    "ĠDemo": 48433,
    "Ġprosperity": 10963,
    "Ġwra": 9225,
    "ACME": 44809,
    "playing": 16861,
    "ĠOl": 15801,
    "Ġspecializing": 20922,
    "Ġcentroids": 26693,
    "Ġjewel": 9703,
    "Ġoutgoing": 12382,
    "Ġ******": 38666,
    "Eleanor": 42830,
    "Ġoscillations": 45272,
    "Ġelliptical": 20396,
    "ecd": 15800,
    "ĠVine": 34938,
    "fires": 10613,
    "calcul": 35550,
    "Ġfle": 7438,
    "Ġguitar": 9944,
    "Ġencrypted": 10846,
    "CPA": 36021,
    "ĠMug": 46912,
    "Ġpendant": 34197,
    "testing": 30268,
    "Pric": 46133,
    "ĠAnaly": 6623,
    "gog": 40251,
    "Ġsensation": 15993,
    "ĠVideo": 11780,
    "Ġding": 40444,
    "Colors": 35403,
    "ĠKenn": 36707,
    "Ġfamilial": 30163,
    "ĠSunbathing": 50131,
    "Ġhus": 12979,
    "MS": 8464,
    "ĠDel": 9352,
    "ĠMBA": 32002,
    "Ġescape": 6377,
    "Ġenvironments": 5875,
    "Cost": 19252,
    "ĠJanuary": 8714,
    "Ġsinging": 7756,
    "Summarize": 3291,
    "Ġ81": 15361,
    "Ġwreckage": 39975,
    "lassified": 47647,
    "verage": 2338,
    "Ġprime": 4496,
    "ĠLittle": 9935,
    "ĠâĪļ": 7573,
    "rient": 19059,
    "1428": 35210,
    "Ġalerts": 12068,
    "Ġcrystall": 30274,
    "orno": 47756,
    "ĠDrog": 36526,
    "Ń": 260,
    "grad": 10447,
    "ĠGIF": 38525,
    "ĠProcesses": 27696,
    "Discrimination": 48575,
    "monkey": 41387,
    "ĠTidal": 36309,
    "Linear": 16747,
    "ordon": 29953,
    "ĠSwedish": 29479,
    "ĠCustomizable": 32498,
    "Ġste": 889,
    "media": 33705,
    "ĠMaybe": 16012,
    "Ġunimag": 21558,
    "Ġe": 304,
    "Ġflask": 43829,
    "Term": 19805,
    "Ġaback": 25275,
    "Ġmeetings": 6529,
    "Ġdraining": 28230,
    "ĠBlood": 22886,
    "Apache": 39718,
    "Ġsurged": 38677,
    "Ġvolume": 4963,
    "rection": 27189,
    "Ġelf": 41190,
    "Ġprovince": 23199,
    "George": 24441,
    "Ġcells": 3578,
    "ustaining": 25529,
    "ĠStability": 29041,
    "Ġpurred": 34946,
    "Ġartisans": 37677,
    "lieffen": 44996,
    "xx": 16230,
    "ependence": 7825,
    "Ġwaning": 34566,
    "Ġbuil": 10486,
    "Ġ211": 38504,
    "ĠViol": 28465,
    "Ġbiologist": 32230,
    "Ġshelves": 11799,
    "ypothesis": 30121,
    "inarily": 43100,
    "Ġthief": 20127,
    "Ġoffsite": 45074,
    "Ġshouts": 40675,
    "ĠSeeing": 28546,
    "ledged": 34878,
    "Ġnominal": 22995,
    "Ġmitts": 33727,
    "Ġbrowns": 23777,
    "Ġburdensome": 39828,
    "Ġele": 1069,
    "Ġaffirmations": 29501,
    "Ġcaf": 7510,
    "ĠUpsell": 48334,
    "Ġothers": 1417,
    "Ġenumerate": 27292,
    "Ġexpanse": 12232,
    "Ġconnectionless": 48015,
    "Ġkites": 36455,
    "Sphere": 44615,
    "ĠLiberty": 12551,
    "Selection": 42906,
    "Ġrichness": 19962,
    "Ġfill": 4998,
    "Ġstew": 22809,
    "igh": 431,
    "ĠCart": 13170,
    "Ġfilmmaker": 49547,
    "ĠMarvin": 37079,
    "opotamus": 25677,
    "zymes": 37061,
    "ĠBiodiversity": 18046,
    "Ġvac": 3033,
    "Ġcollapsed": 22605,
    "Ġclay": 17820,
    "Oprah": 42157,
    "ĠOnly": 10707,
    "Ġsequenced": 47854,
    "ĠHag": 36479,
    "ĠWilbur": 31500,
    "Ġassass": 13192,
    "filter": 39725,
    "Same": 46161,
    "Ġspend": 3866,
    "Ġalso": 612,
    "viewport": 29115,
    "Ġtrying": 3478,
    "ptic": 12295,
    "Ġstyling": 15541,
    "plored": 31984,
    "Ġhes": 6149,
    "Ġattaching": 26650,
    "Ġabandoned": 10459,
    "ĠBlues": 38998,
    "Ġpertinent": 39869,
    "ĠLeaf": 22466,
    "ĠDevil": 33973,
    "ĠSmokey": 45639,
    "Ġsells": 10771,
    "Ġfrauds": 44442,
    "Ġwithdraw": 12988,
    "ampling": 43343,
    "ĠModerately": 42473,
    "ĠRust": 20474,
    "Ġ115": 40658,
    "waste": 23558,
    "ĠEsp": 31991,
    "Ġresolving": 9629,
    "Ġshut": 9996,
    "Executive": 26341,
    "Ġillogical": 35165,
    "Ġmop": 24108,
    "Ġharmoniously": 25014,
    "Ġdirected": 9273,
    "ĠRev": 27436,
    "Optional": 24005,
    "ĠIncentives": 21417,
    "Ġinitializing": 27558,
    "itchh": 35205,
    "ĠMai": 43494,
    "Ġattends": 26651,
    "Ġexper": 760,
    "ANT": 41697,
    "MA": 16220,
    "Domain": 36027,
    "Ġwebbed": 33580,
    "Ġcools": 15094,
    "Ġcollapses": 29489,
    "Ġbounced": 33137,
    "ĠHoo": 43523,
    "elis": 27999,
    "Ġcou": 4930,
    "ĠPhysically": 48322,
    "Ġtoy": 7990,
    "ĠBrooks": 41737,
    "Ġcompetitive": 4498,
    "Ġfig": 3201,
    "cit": 30662,
    "ĠJoyce": 45238,
    "Ġwatering": 13401,
    "Ġvisionary": 32396,
    "ĠSty": 43771,
    "ĠGrilled": 14363,
    "Hon": 33003,
    "Ġsure": 1592,
    "ĠDelay": 44867,
    "Ġfrigid": 40426,
    "thal": 33253,
    "countries": 33849,
    "oph": 3618,
    "HRs": 19764,
    "Fresh": 21440,
    "Ġlevied": 34228,
    "ĠBuk": 41826,
    "ĠBec": 38426,
    "Ġhandshake": 35879,
    "Ġcult": 1699,
    "Ġsales": 2467,
    "ĠEagles": 25265,
    "Ġcrumbly": 31624,
    "Preventing": 42572,
    "Swap": 37416,
    "Appetizers": 42544,
    "Ġspade": 43453,
    "ĠAusten": 14967,
    "Ġdesigner": 8717,
    "ĠMajor": 13898,
    "Ġtelemedicine": 14839,
    "magic": 49534,
    "ĠDO": 38485,
    "lifts": 40280,
    "ulates": 12449,
    "ccoli": 7757,
    "Ġabundance": 11210,
    "Ġoffsetting": 34091,
    "rag": 25838,
    "Ġ1775": 26093,
    "Ġinterstellar": 29013,
    "ĠTheir": 5343,
    "river": 3338,
    "ĠTemperatures": 22628,
    "Ġdaisies": 44762,
    "Ġfan": 13362,
    "beck": 32656,
    "Ġwandering": 13135,
    "Gentle": 27121,
    "Ġovercrowd": 45240,
    "Ġscenari": 4453,
    "Ġfasc": 6735,
    "Ġtasty": 10305,
    "Ġmodernization": 38965,
    "ĠArabic": 42084,
    "ĠReck": 44340,
    "ĠPhilosopher": 20057,
    "eli": 4209,
    "Ġstagg": 33208,
    "ĠWaning": 38463,
    "Ġdod": 22725,
    "-------------|": 26891,
    "Ġreveal": 7886,
    "Ġregularity": 47551,
    "Ġreligious": 7732,
    "Ġthrift": 36990,
    "Ġknit": 38608,
    "Ġborders": 11461,
    "------------------": 26798,
    "Ġgreatly": 3942,
    "furt": 40246,
    "Latron": 49677,
    "Ġdazzling": 25715,
    "ĠSeries": 16621,
    "ĠDecimal": 39071,
    "ĠTemperate": 45328,
    "grid": 18150,
    "Ġreordering": 40483,
    "Ġsnare": 47697,
    "ĠStrongly": 48478,
    "tery": 8817,
    "Ah": 19251,
    "Ġtechnicians": 34874,
    "Ġundefined": 24869,
    "Ġgiggled": 35860,
    "Ġinvaders": 24175,
    "Ġkil": 5421,
    "Completing": 35917,
    "ĠTelescope": 21902,
    "Ġreop": 33164,
    "Ġstepped": 8757,
    "Ġcombination": 3314,
    "olerable": 37502,
    "console": 17018,
    "Character": 8805,
    "Ġduct": 32515,
    "ĠPattern": 39328,
    "Ġdash": 11976,
    "Between": 26370,
    "Ġexploration": 5096,
    "ĠGlaze": 47072,
    "ensor": 13007,
    "Ġink": 12060,
    "Ġdelicately": 35461,
    "happiness": 36130,
    "Ġcourts": 18876,
    "Ġlioness": 48519,
    "Ġabd": 43532,
    "ĠSandro": 45031,
    "character": 25504,
    "arante": 8488,
    "substr": 23384,
    "Ġtense": 3893,
    "Ġstructuring": 39525,
    "Jake": 19530,
    "Ġparenthesis": 18621,
    "ĠMean": 11324,
    "liner": 25517,
    "Ġsteady": 8584,
    "Ġdol": 9259,
    "Pa": 29654,
    "Ġnapkins": 19757,
    "liver": 34990,
    "ĠPRO": 46858,
    "ĠĠĠĠĠĠĠĠĠĠĠĠĠĠĠĠĠĠĠĠĠĠĠĠĠĠĠĠĠĠĠĠĠĠĠĠ": 39407,
    "Nob": 46127,
    "Ġser": 1535,
    "Ġwider": 5775,
    "ĠÂ±": 12934,
    "ifiers": 15773,
    "Ġcelestial": 10567,
    "Ġchronic": 4772,
    "his": 474,
    "iPhone": 18479,
    "spent": 44237,
    "mot": 20438,
    "anghai": 21817,
    "Ġpositivity": 14596,
    "ĠTraining": 7957,
    "Ġtogether": 1386,
    "ĠSSRIs": 49482,
    "ĠWeaknesses": 45449,
    "Ġfield": 2044,
    "ased": 704,
    "ĠSend": 13168,
    "Ġsailed": 22812,
    "Ġguys": 33523,
    "ĠSCSS": 38320,
    "ĠUCS": 43688,
    "\"]": 10110,
    "Ġdocking": 38904,
    "Ġbail": 28837,
    "loaf": 32292,
    "ĠeBook": 43220,
    "Ġmountains": 5444,
    "----------------------------------------------------------------": 24376,
    "Ġorientations": 35553,
    "arrator": 12579,
    "ili": 8220,
    "ĠSmoke": 32305,
    "Income": 29020,
    "Ġantivirus": 12186,
    "ostrophe": 33393,
    "Ġglowing": 13885,
    "ĠTale": 13696,
    "ific": 565,
    "ĠâĤ": 41374,
    "Ġsubordinate": 28220,
    "Esteem": 49953,
    "-(": 37866,
    "ĠMergeSort": 45360,
    "Ġdecre": 2652,
    "morning": 28791,
    "Stars": 26731,
    "specified": 48647,
    "rem": 13250,
    "Ġcrimin": 16686,
    "ilingual": 14215,
    "ĠAmphib": 30015,
    "Ġparticularly": 2763,
    "gorithms": 13402,
    "Ġhighlight": 4949,
    "achos": 29897,
    "vent": 1255,
    "nership": 7357,
    "Ġflav": 17842,
    "Ġcybercrime": 18907,
    "Ġtraffic": 2649,
    "ĠThought": 32219,
    "Ġenergy": 817,
    "Ġsilverware": 27673,
    "ĠMont": 10943,
    "Ġtiger": 13683,
    "Ġregion": 4165,
    "Ġtoxins": 17117,
    "Vacc": 26407,
    "Ġtimel": 4554,
    "othalam": 32103,
    "jacent": 27904,
    "antine": 13265,
    "ĠIncorporating": 15883,
    "ĠDiv": 17818,
    "Ġinhibit": 25663,
    "Engine": 34010,
    "Ġdelegation": 41917,
    "eld": 40569,
    "ĨĴ": 15159,
    "Ġcapitalism": 13751,
    "and": 491,
    "Ġseal": 12996,
    "Ġlaughed": 10844,
    "Ġlearnt": 38572,
    "Ġ399": 29940,
    "Ġprone": 11303,
    "Ġawestru": 44647,
    "ĠCorolla": 31321,
    "ĠNotebook": 22575,
    "bi": 18737,
    "Ġplain": 12157,
    "oth": 786,
    "ĠmaxSoFar": 41262,
    "Ġsupermarket": 17253,
    "wering": 25167,
    "Ġunlocks": 35399,
    "Ġsoothing": 10180,
    "ĠThermodynamics": 26330,
    "Ġterminating": 36912,
    "Ġmov": 4307,
    "Ġsyllogism": 35485,
    "ymph": 21688,
    "ĠEx": 1610,
    "Ġbrowsing": 8477,
    "Ġadvers": 9011,
    "lem": 38176,
    "Ġdisillusioned": 34189,
    "ĠNissan": 37846,
    "VB": 27144,
    "Paid": 46138,
    "ĠVolleyball": 39384,
    "Ġvehicular": 41264,
    "Ġoctahedral": 45819,
    "Ġhides": 27232,
    "genetic": 47759,
    "Ġoscillator": 37519,
    "ĠGDPR": 28449,
    "----------------------|": 49141,
    "Ġsurreal": 23913,
    "ĠĠĠĠĠĠĠĠĠĠĠĠĠĠĠĠĠĠĠĠĠĠĠĠĠĠĠĠĠĠĠĠ": 10351,
    "bery": 22795,
    "ĠCharge": 30193,
    "Ġrac": 11778,
    "Ġrely": 5100,
    "Instagram": 45300,
    "Ġsafe": 2661,
    "Ġunsafe": 20639,
    "Ġimmersive": 7219,
    "Ġquery": 2913,
    "ĠKale": 25359,
    "Know": 27867,
    "ĠSlov": 31410,
    "ĠCourses": 23626,
    "Ġopened": 5942,
    "Ġremov": 10933,
    "ĠDesk": 15538,
    "ĠTik": 22280,
    "Ġchats": 29842,
    "Ġ____": 6647,
    "ĠLegis": 26957,
    "Ġspraying": 35564,
    "cord": 46220,
    "ĠPictures": 41968,
    "Ġ6371": 47421,
    "yg": 43068,
    "Ġvent": 6415,
    "Ġjud": 5567,
    "ĠTol": 46604,
    "Ġpalindromic": 34145,
    "Apart": 26368,
    "ection": 2965,
    "Ġwillingness": 11558,
    "etcode": 40498,
    "ĠClimate": 4753,
    "Ġeye": 3756,
    "Ġitineraries": 45116,
    "Ġsongs": 7458,
    "bias": 42939,
    "ĠPres": 4088,
    "reen": 1211,
    "Ġpartners": 9892,
    "Ġdeficiency": 26681,
    "Ġconcentrating": 27701,
    "Ġbec": 922,
    "**:": 2071,
    "ĠGiraffes": 36553,
    "Ġflaws": 15816,
    "Ġwatercolor": 43817,
    "Field": 28741,
    "Ġranges": 10132,
    "erts": 5774,
    "Pet": 22670,
    "ĠTechnique": 20618,
    "Ġetc": 5712,
    "Ġrepublic": 17213,
    "Ġmockups": 30468,
    "ĠRoller": 39545,
    "Ġstricter": 13644,
    "aping": 11477,
    "Ġambiguity": 19220,
    "Ġbib": 23115,
    "heim": 16389,
    "ĠAcropol": 48379,
    "Ġinner": 7143,
    "Ġcarniv": 11861,
    "backgroundColor": 35686,
    "Sequence": 39958,
    "alyze": 3525,
    "llig": 1368,
    "Ġuninstall": 29935,
    "ĠSant": 12538,
    "Ġdisplacement": 7597,
    "Ġcontentious": 22000,
    "ĠAnne": 19911,
    "Ġclogged": 32029,
    "ĠTaco": 38242,
    "ĠAuthor": 16510,
    "Ġinterrupts": 41836,
    "each": 31774,
    "ĠSigmund": 43383,
    "Ġnorthwestern": 37336,
    "onucle": 30710,
    "ĠDevelop": 3121,
    "ead": 1947,
    "namespace": 45168,
    "62": 15146,
    "Ġdome": 28843,
    "Ġconven": 3182,
    "Ġshowering": 44836,
    "Ġbaguette": 39994,
    "ĠFestivals": 45323,
    "apolis": 43670,
    "Ġnever": 1901,
    "Ġgarlic": 4118,
    "mental": 28000,
    "ĠCore": 16984,
    "Ġsubtrees": 24920,
    "ĠBanana": 8959,
    "Scoring": 41681,
    "packing": 44822,
    "Ġsecondhand": 33623,
    "fu": 9290,
    "ĠAust": 5165,
    "PersonX": 41354,
    "BST": 22651,
    "ĠInstru": 25214,
    "erged": 25318,
    "Ġpeaceably": 47776,
    "Ġmagaz": 10882,
    "CHA": 41982,
    "Evaluating": 36032,
    "ĠIssues": 14872,
    "invent": 38109,
    "Ġfiltering": 9105,
    "cul": 1262,
    "avi": 1413,
    "Ġserene": 6755,
    "Ec": 32991,
    "Ġliv": 43238,
    "ĠLyon": 37420,
    "Ġtelecommunications": 24444,
    "Ġprostate": 46651,
    "Ġleft": 2381,
    "Ġoccurring": 10193,
    "ĠTitle": 11289,
    "Ġdresses": 18628,
    "Ġsubspecies": 28696,
    "Ġmetadata": 25960,
    "ĠScoring": 47687,
    "ammation": 11133,
    "Ġchromosomes": 13442,
    "Ġinsect": 7203,
    "Ġchaos": 8070,
    "Ġsympathy": 24459,
    "ĠGren": 27359,
    "Rotate": 49957,
    "ĠEffect": 9548,
    "Ġcorrected": 11433,
    "Ġlent": 43237,
    "Ġsovere": 18569,
    "Ġindifferent": 36626,
    "Ġ**": 1044,
    "ĠVerge": 43880,
    "employment": 6229,
    "Happiness": 21076,
    "erring": 46422,
    "Skills": 21057,
    "Ġiterable": 28394,
    "Ġdissolved": 21712,
    "ague": 8905,
    "Ġ78": 17435,
    "ĠDestruction": 47011,
    "Ġposits": 30938,
    "168": 24289,
    "Chatbot": 12046,
    "ĠBundesrat": 50032,
    "Ġslides": 10647,
    "ĠHeadache": 32580,
    "Ġpuffed": 49495,
    "Ġseasonality": 39058,
    "ĠBighorn": 43518,
    "ĠHistory": 9331,
    "Ġinnovations": 11010,
    "Orders": 22085,
    "Ġnerve": 16242,
    "ĠCRM": 19586,
    "Ġassignment": 8176,
    ".]": 25105,
    "Spanish": 26158,
    "Ġhooks": 34600,
    "Ġ)": 9150,
    "Ġmutable": 28376,
    "ĠVishnu": 45851,
    "ĠðŁĮ¿": 45408,
    "ĠKeral": 47386,
    "Ġunable": 5538,
    "ĠLos": 7848,
    "DB": 11080,
    "ausole": 28504,
    "ĠSnapdragon": 30450,
    "Ġbelief": 4192,
    "Ġstandby": 25389,
    "ĠHawaiian": 29409,
    "beatable": 20687,
    "Ġtyph": 24181,
    "Ġprivacy": 3869,
    "Connect": 16478,
    "enario": 17565,
    "ĠPike": 43448,
    "ĠUtilize": 7614,
    "proof": 9114,
    "ĠClear": 7423,
    "Ġoxidation": 24959,
    "ĠLatino": 48706,
    "Ġbubbly": 17489,
    "ĠGrammy": 42369,
    "Springtime": 49169,
    "Ġmicroscopic": 24463,
    "Ġmultip": 5468,
    "ĠWid": 38458,
    "ĠBor": 30869,
    "Ġedges": 6091,
    "ĠAngel": 31306,
    "Ġtunes": 32603,
    "Ġpulp": 33843,
    "anders": 38439,
    "Ġorigins": 11549,
    "ened": 3569,
    "singular": 44424,
    "ansas": 16999,
    "wavering": 40330,
    "Ġowed": 39280,
    "ndon": 31846,
    "Ġchildish": 47535,
    "hadow": 40259,
    "Draft": 15441,
    "Ġborder": 7617,
    "ĠPower": 6795,
    "ĠPence": 40661,
    "ĳ": 244,
    "Benefits": 19778,
    "Ġelation": 33596,
    "')`": 48364,
    "ĠGraph": 11773,
    "Ġrestricting": 26228,
    "ĠBeeth": 29149,
    "Ġwarmed": 30018,
    "Ġblogposts": 47872,
    "Ġtea": 4751,
    "rystal": 37785,
    "ĠHabitats": 45236,
    "ĠConvolutional": 20575,
    "atural": 1139,
    "ĠVarious": 20682,
    "Ġsynthesized": 29515,
    "cking": 2692,
    "ell": 602,
    "uten": 13819,
    "inety": 34539,
    "Ġseism": 23173,
    "ĠMyFitness": 37105,
    "Ġteenage": 12851,
    "Ġkangaroos": 20738,
    "ĠTreat": 8939,
    "Ġstreak": 32377,
    "Ġsad": 5383,
    "ĠAmsterdam": 29114,
    "Ġhours": 2528,
    "ĠEdo": 46898,
    "Ġswam": 19917,
    "Recently": 25509,
    "Ġidealized": 32420,
    "iege": 30899,
    "ĠPreprocess": 20597,
    "Ġsubsequ": 9106,
    "Linked": 27129,
    "atopoe": 31841,
    "ĠNeu": 44266,
    "Ġbountiful": 27031,
    "Clown": 36023,
    "Ġdesired": 2921,
    "ju": 21459,
    "Ġsettle": 9893,
    "Ġ87": 24219,
    "Ġdoth": 30738,
    "Ġmonopolist": 31567,
    "abled": 12720,
    "iscing": 27943,
    "Ġsymmetric": 29527,
    "ĠIncorrect": 32268,
    "identiality": 44557,
    "ĠPrincipal": 26261,
    "Ġregret": 11927,
    "vitational": 22694,
    "month": 12833,
    "fired": 38012,
    "Ġjuggling": 24468,
    "ĠOxford": 19512,
    "lit": 11226,
    "ĠYok": 33453,
    "Ġoccasions": 21377,
    "Ġdiversifying": 25584,
    "ĠAABB": 37756,
    "Ġbusinesses": 1490,
    "Ġfitting": 16303,
    "Expenses": 41942,
    "century": 23802,
    "Ġdisregard": 35764,
    "+----------------------------": 39689,
    "Ġmicrotub": 48327,
    "rite": 948,
    "ĠRetriever": 24314,
    "Language": 23527,
    "fed": 26421,
    "ĠâĸĪâĸĪâĸĪ": 37830,
    "Ġethos": 44246,
    "Ġimperfect": 27629,
    ")`,": 19247,
    "Ġbias": 5639,
    "(\"\\": 41461,
    "Ġchanging": 3014,
    "istent": 28014,
    "ĠKyr": 47387,
    "ometer": 13296,
    "Catch": 42810,
    "geons": 43351,
    "Ġlater": 5302,
    "Ġmarched": 36885,
    "bool": 25149,
    "Simplicity": 49836,
    "Ġfalling": 7238,
    "Ġcomparing": 6526,
    "us": 433,
    "Ġcetaceans": 42661,
    "jis": 27163,
    "ĠWisdom": 49335,
    "ering": 1328,
    "Ġtriphosphate": 22838,
    "ĠMit": 12998,
    "ures": 708,
    "ifferent": 32056,
    "Ġdismiss": 18814,
    "Ġforecasted": 39274,
    "Ġrepeated": 6754,
    "emics": 18796,
    "Ġtoothbrushes": 37233,
    "ĠGand": 12895,
    "ĠStonewall": 37334,
    "textarea": 17372,
    "Ġknown": 1315,
    "fruits": 29678,
    "Ġchrom": 9883,
    "Ġwebpages": 22846,
    "Ġmotorcycles": 32541,
    "Ġflattened": 32784,
    "ĠGraduate": 45171,
    "Ġgeneration": 4552,
    "Fight": 46050,
    "ĠDrugs": 37446,
    "ĠEurasian": 39893,
    "Forest": 31709,
    "Ġpolarization": 39263,
    "rated": 17559,
    "apter": 10991,
    "Ġfuels": 3393,
    "Ġnav": 38225,
    "ĠPut": 12997,
    "ĠFactors": 21740,
    "Ġmermaid": 31863,
    "Ġfavorable": 15685,
    "Ġmurdered": 30322,
    "Ġsends": 9986,
    "heses": 9196,
    "Ġdoubling": 25559,
    "Ġ12345": 21764,
    "hens": 15607,
    "paid": 31797,
    "ĠDeterminer": 34184,
    "Ġbott": 3353,
    "ĠSquared": 39324,
    "starch": 18252,
    "Ġwake": 9341,
    "ayer": 8748,
    "ĠAlt": 31072,
    "ĠRetrie": 18144,
    "roids": 26483,
    "Ġdoc": 2420,
    "ĠMargaret": 24475,
    "Ġdetermination": 4464,
    "Overwhelmed": 39957,
    "accel": 33267,
    "Ġcelebr": 4008,
    "Ġeasier": 2159,
    "ĠÂ¼": 22932,
    "Ġgigs": 42054,
    "Ġneedy": 47183,
    "ĠUp": 5923,
    "Ġchanged": 3960,
    "ĠLastName": 33907,
    "ĠVictorian": 17124,
    "buntu": 40006,
    "ĠTreats": 48633,
    "Ġestranged": 41188,
    "Ġtadpole": 49848,
    "ĠJohns": 44895,
    "Ġintercepting": 42135,
    "ĠCoSmoS": 37857,
    "vised": 3892,
    "aldives": 23876,
    "Ġdemands": 9166,
    "Ġquadruplets": 42624,
    "Ġbird": 4379,
    "Ġunattended": 29600,
    "Ġmultitask": 30008,
    "autumn": 38742,
    "ĠAlarm": 29130,
    "--------------------------------------------------------": 44884,
    "Ġcapsule": 37851,
    "ĠPositives": 33275,
    "ĠInstructions": 24630,
    "fts": 14619,
    "ĠExpense": 39232,
    "Ġcooking": 3767,
    "Ġcannot": 3118,
    "Ġimproperly": 49377,
    "ĠUnsupervised": 23020,
    "235": 25728,
    "Miami": 42879,
    "ĠReasons": 31025,
    "winning": 33945,
    "Ġplagued": 27687,
    "comfort": 41131,
    "Ġhoriz": 5026,
    "Ġmyself": 9682,
    "Ġaperture": 21115,
    "ĢâĶĢâĶĢâĶ": 24976,
    "Ġwiser": 27615,
    "ĠExpensive": 33834,
    "rimson": 47928,
    "Ġshining": 6979,
    "ionic": 14270,
    "Ġretal": 25968,
    "ordered": 17832,
    "Ġbodies": 6333,
    "ĠShip": 36376,
    "using": 7482,
    "ĠBackups": 32557,
    "Ġprepping": 30935,
    "Ġaxes": 26192,
    "ĠMarshal": 44627,
    "Prepare": 17101,
    "Peter": 25131,
    "ials": 10923,
    "Ġcluttered": 17951,
    "itarian": 9224,
    "Ġpeninsula": 48113,
    "ĠBreaking": 21742,
    "sharp": 26762,
    "Guided": 44958,
    "Ġast": 4450,
    "ĠDecorate": 35769,
    "Ġsynaptic": 35261,
    "Ġchopped": 5727,
    "212": 29624,
    "dec": 18739,
    "**-": 38518,
    "Replace": 9446,
    "ĠAre": 5245,
    "Ġendures": 38703,
    "ĠLocke": 31354,
    "Ġvacuum": 9077,
    "Ġoctets": 48762,
    "Ġastron": 5687,
    "Ġcultures": 4640,
    "Ġunverified": 40853,
    "Ġciabatta": 50056,
    "umpy": 47965,
    "ĠGraduation": 39576,
    "Money": 18467,
    "Ġtranscription": 21565,
    "Ġbroader": 8143,
    "segment": 40468,
    "Ġaccumulate": 15885,
    "ĠBP": 40715,
    "Humans": 13441,
    "ĠPassion": 24963,
    "erior": 10854,
    "Ġremembers": 34337,
    "ĠCafe": 30828,
    "ĠEcho": 20501,
    "Ġprospect": 9963,
    "ĠAlcott": 44042,
    "Ġcholesterol": 10064,
    "ĠPhot": 21657,
    "Embark": 42239,
    "Ġles": 30757,
    "102": 31029,
    "nu": 36149,
    "ĠDamage": 22598,
    "Ġinverter": 45388,
    "oufl": 22267,
    "lisher": 16226,
    "Ġdriven": 6154,
    "drained": 33051,
    "Extend": 45048,
    "Con": 1845,
    "ĠSpatula": 42648,
    "Ġwrists": 45020,
    "ĠGreat": 3867,
    "ĠMedication": 37035,
    "ĠInspiration": 45389,
    "Ġvanquished": 45747,
    "dem": 11830,
    "Multiple": 45092,
    "Ġpour": 7599,
    "ĠRegardless": 28306,
    "Ġstimulate": 10096,
    "Ġshe": 854,
    "])`": 33850,
    "Ġboosts": 19435,
    "Station": 28280,
    "Ġautonomy": 12661,
    "Ġadmiration": 15254,
    "****": 19602,
    "Ġpresumably": 49657,
    "Ġjuicy": 11557,
    "ĠDarling": 48753,
    "ĠInterviews": 35779,
    "Ġping": 46442,
    "ĠCRISPR": 31964,
    "Ġoperation": 5401,
    "Ġpunishing": 39075,
    "Ġreleasing": 8311,
    "atical": 8542,
    "Strong": 30079,
    "Ġvigorous": 20697,
    "wick": 40328,
    "Ġseconds": 5998,
    "esia": 43141,
    "Ġwebpage": 11123,
    "evolving": 21766,
    "ĠHoverTrike": 49920,
    "Ġeigen": 46530,
    "ĠSalmonella": 42148,
    "leyball": 15852,
    "ĠComparison": 36938,
    "values": 16481,
    "exper": 27475,
    "Blob": 48489,
    "Ġminutes": 2027,
    "Ġtuna": 20453,
    "British": 31632,
    "Ġ1956": 28461,
    "orphism": 17965,
    "Ġagrees": 21580,
    "ĠRyzen": 39927,
    "ĠMeteorologists": 49665,
    "Ġtwist": 9431,
    "Ġtan": 20452,
    "fficiency": 7056,
    "Ġpsychological": 9029,
    "Ġalbums": 26260,
    "Gardening": 35861,
    "Ġunder": 859,
    "bones": 35035,
    "otechnology": 18586,
    "ĠWaterloo": 26816,
    "Ġdes": 608,
    "Ġpraise": 14864,
    "Ġmetropolises": 49040,
    "aying": 11416,
    "Ġcovariance": 36681,
    "spaper": 30095,
    "ĠFrank": 9737,
    "Ġmutual": 8382,
    "Ġtemperature": 2010,
    "Ġlarger": 2951,
    "ĠChed": 29837,
    "Ġdownhill": 41037,
    "ĠTriomphe": 32631,
    "AS": 20742,
    "Soc": 19803,
    "Ġenslave": 49775,
    "Ġperception": 8180,
    "Ġactivation": 12099,
    "ĠRealists": 48859,
    "Alliteration": 44663,
    "Ġfurthest": 34342,
    "ust": 460,
    "olded": 41024,
    "ettes": 25831,
    "ĠPhishing": 21930,
    "Ġreveals": 16717,
    "ĠAtt": 5606,
    "bash": 23081,
    "1965": 41153,
    "cha": 20469,
    "ĠLutheranism": 45033,
    "Ġlongevity": 16539,
    "Ġdisjoint": 34823,
    "Ġbooms": 44327,
    "Ġwhisp": 8749,
    "ĠWarsaw": 32638,
    "Compress": 26720,
    "Ġhars": 36268,
    "38": 9502,
    "Ġdominate": 26777,
    "Ġflops": 47319,
    "Ġunfold": 14110,
    "Ġtreating": 11791,
    "Ġbriefly": 18640,
    "ĠParsing": 45563,
    "Ġfabric": 9219,
    "Ġbuzzword": 44846,
    "Ġcommunication": 1508,
    "Ġnavig": 2555,
    "Ġdevised": 36740,
    "inclusive": 19399,
    "Ġstatesman": 26768,
    "ĠYet": 25343,
    "ĠCong": 7749,
    "ĠPainting": 21774,
    "Ġillegally": 35565,
    "Eager": 46043,
    "oursera": 18602,
    "Ġdrastic": 21365,
    "ophone": 27546,
    "Ġsimplification": 47956,
    "Ġtraced": 17197,
    "Ġfoil": 16741,
    "ĠLovelace": 34060,
    "Ġoptimism": 16296,
    "ĠDVDs": 39932,
    "Ġsignific": 1103,
    "Ġrecreation": 23443,
    "Internet": 17925,
    "Ġgrowls": 38667,
    "ĠRisks": 25225,
    "Ġdefinitely": 9279,
    "Ġchilly": 20154,
    "Ġbreach": 13617,
    "Ġdietary": 7853,
    "ĠGalahad": 33976,
    "Ġblossoming": 32675,
    "Ġweights": 6370,
    "Ġmoonlight": 16309,
    "Regardless": 48846,
    "Ġswing": 12478,
    "ĠBecoming": 38433,
    "Ġ504": 35254,
    "Ġbass": 23580,
    "Ġparticip": 2877,
    "ĠCirrus": 32862,
    "Ġproprietary": 17739,
    "always": 34574,
    "Ġimpermanence": 45893,
    "Ġfroze": 44502,
    "Ġeng": 938,
    "Ġpollutant": 39199,
    "ĠIncredible": 47714,
    "ĠStep": 10032,
    "Rec": 5157,
    "Ġconsp": 29941,
    "Ġkiosk": 49690,
    "Ġruled": 11620,
    "Ġ+-------": 42408,
    "discriminant": 37272,
    "Ġbackup": 8170,
    "Ġabrid": 46952,
    "ring": 2273,
    "vements": 40484,
    "Sal": 11339,
    "ĠÎ£": 45138,
    "Ġaccomplish": 4525,
    "Ġretailers": 10019,
    "Ġcomputational": 7723,
    "ĠRange": 17792,
    "Ġaprons": 50052,
    "1997": 33563,
    "ĠPolonium": 41591,
    "Ġlimerick": 16684,
    "Ġsociable": 38622,
    "Supply": 26237,
    "rength": 11712,
    "Ġ|---": 29056,
    "ĠHonolulu": 42203,
    "atellite": 26902,
    "Ġrelations": 1504,
    "Ġcapillaries": 43997,
    "Caffeine": 37901,
    "Dynamic": 35962,
    "Ġmicrom": 41924,
    "omatopoeia": 40478,
    "Finally": 4567,
    "ĠPursu": 23009,
    "Ġframework": 7765,
    "Ġmurmurs": 45644,
    "Ġteleportation": 31209,
    "ĠDrop": 16434,
    "Ġdepr": 16668,
    "ĠScanner": 27040,
    "Bat": 23517,
    "Ġcords": 26663,
    "Ġshimmered": 21758,
    "Ġwine": 7677,
    "Low": 22219,
    "ĠWhile": 2800,
    "Ġdrama": 10341,
    "Ġparticulate": 18086,
    "Ġtenure": 27577,
    "oala": 26434,
    "Ġpreying": 38586,
    "Ġ180": 9955,
    "Ġharmonies": 30335,
    "Ġpampering": 34308,
    "(\"%": 37047,
    "ĠJun": 30949,
    "ĠMi": 33291,
    "Ġregist": 11305,
    "ĠCreationism": 49292,
    "argv": 34046,
    "Ġcurses": 48858,
    "ĠVisual": 8482,
    "Ġacrylic": 25912,
    "Ġubiqu": 19302,
    "Ġjelly": 11998,
    "Ġunjust": 34851,
    "Imperative": 49835,
    "term": 3051,
    "neum": 19355,
    "Ġturb": 7352,
    "ĠSecrets": 24300,
    "Ġb": 288,
    "Ġshaman": 31981,
    "rupt": 3254,
    "Ġbrag": 47460,
    "Ġblow": 7652,
    "ĠOpportunities": 14128,
    "Contact": 13230,
    "ron": 1290,
    "Ġorthogonal": 49759,
    "ĠDuke": 21769,
    "Ġinconvenient": 26207,
    "Ġmotivates": 19946,
    "Ġreversed": 11910,
    "together": 36169,
    "Ġauthor": 2816,
    "Ġaccompan": 11145,
    "-**": 45954,
    "Ġdraw": 3233,
    "aser": 24079,
    "sud": 38063,
    "vey": 2501,
    "Â°": 3177,
    "ĠAnalyst": 14366,
    "Ġattractive": 7643,
    "mindedness": 34032,
    "Ġcom": 386,
    "Ġdoorknob": 49770,
    "Ġcommemor": 27371,
    "ĠTex": 10072,
    "ĠMillions": 32744,
    "raway": 28872,
    "ĠPerspective": 26939,
    "Construct": 3332,
    "Ġsuprem": 33219,
    "TreeNode": 30384,
    "visible": 37210,
    "ĠWindsor": 49701,
    "Ġ\");": 28071,
    "alore": 23114,
    "Filling": 31708,
    "Ġappet": 10134,
    "anes": 5718,
    "ĠGreet": 30907,
    "Ġinterviewing": 22897,
    "rients": 19060,
    "Relationship": 42515,
    "ĠUniversal": 16467,
    "Travel": 21352,
    "ĠSitting": 38316,
    "rittle": 29965,
    "oring": 1832,
    "ĠKeith": 45046,
    "Ġdusty": 20652,
    "Ġfosters": 9694,
    "inja": 46400,
    "Ġsmoothies": 27526,
    "Ġutterly": 39822,
    "Ġchoose": 2747,
    "Service": 21401,
    "Ġexcelled": 23401,
    "Middle": 46116,
    "sembly": 14972,
    "sumÃ©": 48107,
    "orically": 46447,
    "Ġopens": 10229,
    "Determination": 45597,
    "onts": 12532,
    "br": 2383,
    "mechan": 44019,
    "Ġairfare": 36745,
    "ĠChrist": 7015,
    "ĠLoving": 45106,
    "Ġenriched": 27044,
    "ĠDriver": 24697,
    "ĠKernel": 45808,
    "Ġincidence": 21528,
    "boosting": 39809,
    "Ġdecentralization": 31367,
    "id": 336,
    "Ġmelanch": 15100,
    "Ġevaluated": 8768,
    "Ġabstraction": 19349,
    "Ġtrig": 6620,
    "ĠBanff": 44640,
    "Ġsanitize": 39342,
    "Ġnonviolent": 21628,
    "\"`,": 50158,
    "ĠHappyness": 45137,
    "business": 31755,
    "scaping": 36855,
    "Ġrelaxed": 9604,
    "ĠChord": 25355,
    "Kid": 42867,
    "Ġdistant": 7366,
    "Ġ10001": 48603,
    "Ġredo": 44199,
    "Ġelevations": 41776,
    "ĠForm": 8025,
    "Convolutional": 41175,
    "CRE": 19253,
    "Ġinflated": 35519,
    "Ġ299": 29917,
    "Ġunresponsive": 29934,
    "Ġpsychologist": 25514,
    "ĠGig": 36546,
    "Ġmedley": 43780,
    "apro": 47121,
    "hogs": 33062,
    "ĠVien": 24755,
    "Ġimpr": 16425,
    "ĠEritrea": 42709,
    "Ġvacu": 8122,
    "Venture": 34450,
    "Ġrail": 15348,
    "Ġcolleag": 5277,
    "Ġparallel": 7705,
    "Ġincomp": 24660,
    "Hiking": 37923,
    "Ġnoodles": 11236,
    "Ġclogs": 43591,
    "Ġretrie": 4096,
    "ĠExport": 38779,
    "Magnetic": 40160,
    "ĠMagent": 26239,
    "ĠUPC": 43687,
    "[-": 16378,
    "ĠApt": 43345,
    "Ġaccommod": 6634,
    "dron": 40236,
    "estration": 25877,
    "ĠRoose": 18267,
    "accumulator": 50141,
    "Ġrequire": 1814,
    "ouring": 36518,
    "ĠOptimism": 41694,
    "Ġdeploying": 15876,
    "Ġaimlessly": 36980,
    "Ġdepartments": 12943,
    "Ġmillenn": 20946,
    "slope": 21046,
    "isted": 18280,
    "Ġjogging": 14304,
    "Ġtechnique": 4265,
    "ĠOverjoyed": 48184,
    "ĠPanic": 39459,
    "Ġtrigonometry": 30496,
    "Coral": 36020,
    "Ġcondenser": 41821,
    "etted": 40496,
    "Ġmismanagement": 50030,
    "ĠBasket": 39343,
    "Ġdiving": 16964,
    "Ġupstairs": 47114,
    "Ġthanked": 14106,
    "Ġrepeatable": 48405,
    "Ġfaint": 14625,
    "sample": 28801,
    "Ġelk": 38844,
    "Ġod": 9540,
    "ags": 16814,
    "float": 16053,
    "Ġpaint": 6234,
    "ĠLesotho": 45544,
    "Ġproofing": 44828,
    "ĠArmy": 16139,
    "ĠLonger": 41835,
    "Ġcope": 12618,
    "kempt": 40272,
    "Ġcomprising": 30346,
    "Ġbegu": 36332,
    "Ġintroversion": 42030,
    "Ġ________________________________________": 49667,
    "Ġ1880": 35146,
    "ĠBlackbeard": 39269,
    "adness": 19316,
    "acter": 5582,
    "spring": 43043,
    "Ġharden": 44034,
    "Ġtalked": 12930,
    "ĠMagazine": 32620,
    "Examples": 31046,
    "ĠLongest": 39352,
    "iri": 30791,
    "ĠTaxes": 34005,
    "Ġeducators": 12396,
    "ĠStir": 10138,
    "ĠFundamental": 35569,
    "sized": 10732,
    "ĠEnormous": 41015,
    "ĠArrayList": 45396,
    "Limited": 42876,
    "Â¹": 38094,
    "Ġmeanings": 11542,
    "irtual": 1990,
    "asc": 3415,
    "Ġreformed": 44834,
    "Jump": 42864,
    "Ġpriced": 19612,
    "Ġhyperbolic": 48991,
    "repeat": 35801,
    "Ġunknowns": 32458,
    "Ġinstalling": 9526,
    "Ġknife": 10002,
    "Increasing": 21396,
    "Ġwatermelon": 27406,
    "Ġtranscribed": 38612,
    "Ġsoreness": 35674,
    "ĠLinkedList": 31395,
    "uce": 4184,
    "Ġvaluable": 2878,
    "ĠCap": 7004,
    "fare": 15742,
    "ĠJill": 17208,
    "Ġtendency": 16879,
    "ĠFoods": 21709,
    "Ġenvelopes": 48927,
    "Ġmal": 4784,
    "Ġpot": 983,
    "ĠLiberals": 45710,
    "Ġ1982": 32207,
    "rison": 46321,
    "ĠÃ·": 11498,
    "Ġvictim": 12858,
    "Ġgives": 4206,
    "Ġwife": 11838,
    "Ġimm": 1951,
    "ĠCollaborative": 22511,
    "Ãº": 29716,
    "Ġglycemic": 49182,
    "idden": 4154,
    "bees": 29151,
    "Ġreformat": 29381,
    "Ġmuseum": 6139,
    "Ġcrunches": 39441,
    "Ġimmense": 8092,
    "Ġinnocent": 14475,
    "Respons": 22927,
    "Ġcontemplating": 39598,
    "Ġagreeable": 37131,
    "ĠOrganizations": 19979,
    "later": 34492,
    "ĠCrush": 46780,
    "Ġbased": 1226,
    "ĠExpert": 22506,
    "Ġ++": 38626,
    "Ġsuccessive": 22827,
    "ismo": 47502,
    "ĠEncourage": 4339,
    "anuel": 26883,
    "wash": 40329,
    "iac": 22243,
    "Ġbut": 703,
    "ĠAce": 34666,
    "Ġshipment": 22316,
    "064": 45963,
    "Combining": 39792,
    "enol": 40374,
    "Ġintensely": 32465,
    "ool": 1525,
    "Ġbookkeeper": 47609,
    "ulled": 34659,
    "Ġguest": 10880,
    "ĠSavvy": 48863,
    "Ġscre": 6482,
    "Accommodation": 49786,
    "impl": 31896,
    "Ġstranger": 10931,
    "Ġjournaling": 22178,
    "Ġquadrilateral": 28623,
    "established": 20820,
    "Ġidentifiable": 28189,
    "Ġaccept": 3857,
    "ĠBrainstorm": 28058,
    "Ġmatrix": 5941,
    "Yellow": 27887,
    "Ġtweaking": 27700,
    "Ġdesolate": 20530,
    "Ġalthough": 8245,
    "Ġvinaigrette": 27105,
    "Az": 45997,
    "ĠContacts": 44954,
    "ĠLLC": 20842,
    "Ġmosquit": 25692,
    "Ġdomestic": 8452,
    "Deck": 39476,
    "Ó": 148,
    "Ġbravery": 7489,
    "ĠJennifer": 23699,
    "ĠCere": 31959,
    "ĠSpider": 23762,
    "Ġlecture": 14913,
    "Ġprized": 36215,
    "Ġmasked": 48672,
    "Ġscale": 3820,
    "Ġdecreasing": 9809,
    "Ġeventually": 4408,
    "orrect": 4931,
    "osling": 46840,
    "Stat": 30078,
    "Ġbiomes": 33569,
    "Ġexhibit": 9698,
    "Ġfluidity": 35526,
    "usion": 5645,
    "Ġunpopular": 37834,
    "Ġbleaching": 24382,
    "imicro": 43261,
    "ĠVerdun": 40000,
    "Ġproductions": 33370,
    "ĠDATEDIFF": 42507,
    "Ġengagement": 3240,
    "Ġfolklore": 32772,
    "cel": 3522,
    "Ġrelocate": 25950,
    "warves": 23404,
    "Ġresemble": 23267,
    "ĠFerry": 45073,
    "Ġsalespeople": 38737,
    "ĠTiananmen": 49803,
    "Mel": 27131,
    "ĠPay": 7380,
    "Ġperiods": 6322,
    "Ġbrowned": 14335,
    "Ġfundamentally": 11275,
    "uttered": 17786,
    "Ġheavenly": 32338,
    "Ġ::": 31277,
    "ĠGal": 10755,
    "Ġcasinos": 41741,
    "ĠLyme": 47099,
    "inomialNB": 49612,
    "POST": 28759,
    "Ġtund": 24045,
    "Ġimpending": 29851,
    "range": 4167,
    "ARB": 41609,
    "reviewed": 37648,
    "Ġsimulation": 11372,
    "ĠInte": 3040,
    "ĠCed": 8576,
    "aws": 8778,
    "Ġautocracy": 25985,
    "Ġnest": 6100,
    "Ġpostal": 36853,
    "ĠForum": 25370,
    "ĠBot": 17598,
    "3500": 39236,
    "Ġimportantly": 21217,
    "enter": 20461,
    "Ġpositive": 1431,
    "ĠReturns": 22490,
    "ĠCaching": 46777,
    "Ġintently": 23661,
    "ĠJack": 3721,
    "Ġeloquent": 42596,
    "ĠPose": 46853,
    "Ġbadminton": 41592,
    "Ġhoned": 35257,
    "appy": 6384,
    "PS": 15289,
    "Ġfran": 40424,
    "ĠCertificate": 42302,
    "Ġspa": 15953,
    "ĠDon": 4431,
    "Ġunderlined": 15349,
    "ĠAttach": 19172,
    "Ġparsed": 37261,
    "handed": 30265,
    "Ġore": 12619,
    "Ġcitizenship": 23329,
    "Stop": 38900,
    "Ġreligion": 8457,
    "ĠEnsuring": 11722,
    "inoceros": 23498,
    "ĠHolocaust": 34329,
    "Ġsmoothing": 32328,
    "Ġhygiene": 9601,
    "rambled": 27256,
    "Ġsmartwatches": 22438,
    "Ġriding": 13176,
    "Compute": 12330,
    "splargh": 49800,
    "Ġrecruit": 12385,
    "Ġthoughtfully": 23803,
    "ĠSports": 13481,
    "sharing": 11261,
    "ĠAccessorize": 35330,
    "mel": 14385,
    "ivitis": 46711,
    "Ġconvenient": 4473,
    "ĠGreed": 47067,
    "Ġkeeping": 3789,
    "aucratic": 33954,
    "composite": 37314,
    "Ġingenuity": 25709,
    "Ġdictation": 37327,
    "Ġcrim": 7665,
    "Ġrestoring": 20234,
    "uthering": 46570,
    "ĠBlissful": 45499,
    "elta": 25443,
    "ĠImplementation": 20291,
    "Ġillustr": 8597,
    "Ġrepository": 17409,
    "Lumin": 42875,
    "Ġlifelong": 15585,
    "ĠMacau": 48527,
    "Ġsavagery": 41333,
    "ĠRock": 9880,
    "Ġunderline": 32118,
    "Ġimplying": 17593,
    "creat": 31760,
    "Ġmiscon": 17671,
    "ĠGramm": 23336,
    "gram": 13124,
    "Ġportrayals": 44750,
    "Ġwindsh": 41167,
    "Ġexclamation": 25055,
    "pea": 31176,
    "ĠDwarf": 34805,
    "Ġequ": 971,
    "Ġadmirable": 22102,
    "ĠShowman": 44841,
    "motivation": 28634,
    "Ġacquis": 44595,
    "Harm": 40128,
    "Ġdismant": 28097,
    "major": 31668,
    "Ġinvasive": 15650,
    "Ġinteger": 3996,
    "iaries": 14497,
    "ometry": 12394,
    "amma": 24837,
    "Ġidiom": 6518,
    "ertain": 1409,
    "havior": 24999,
    "Phrase": 30106,
    ".-": 45955,
    "ica": 8244,
    "ĠGanges": 43626,
    "Ġ'''": 33494,
    "mosp": 2177,
    "Ġstrange": 6690,
    "ources": 1014,
    "idated": 23139,
    "Ġshooting": 14726,
    "arse": 11088,
    "ĠPoaching": 39411,
    "rator": 20445,
    "uctive": 36172,
    "fe": 13461,
    "Ġfoolproof": 39643,
    "Ġreel": 46537,
    "ĠCompost": 16495,
    "ĠSoccer": 17298,
    "Ġpeace": 2601,
    "Ġadheres": 26582,
    "ĠPhone": 13530,
    "Ġgeys": 32356,
    "Ġuncomfortable": 16648,
    "Ġincon": 8330,
    "Ġshadow": 10840,
    "Ġsynchronous": 31474,
    "Ġcontemporary": 12450,
    "Successful": 49130,
    "Ġheaded": 14819,
    "Ġphotograph": 9319,
    "Ġaesthet": 14372,
    "Ġpestic": 10427,
    "Ġdocuments": 4457,
    "suite": 29224,
    "Ġlily": 34603,
    "Ġpreferable": 31213,
    "tx": 36165,
    "ĠOften": 15886,
    ")),": 34367,
    "Political": 31439,
    "Ġsalinity": 41072,
    "Ġcarved": 21214,
    "Ġgravity": 5984,
    "ĠCupertino": 32799,
    "ĠSauce": 27043,
    "duplicate": 36402,
    "Ġlarge": 1181,
    "Ġcompares": 8674,
    "Ġdimensions": 10527,
    "Ġendemic": 43919,
    "Ġprofessions": 20252,
    "Ġtrendy": 19171,
    "Ġvicious": 33229,
    "Ġyouthful": 37403,
    "Humm": 31715,
    "ĠReflective": 45502,
    "Ġcetace": 38128,
    "ĠOdysseus": 31560,
    "Ġabrupt": 24684,
    "ĠDeepMind": 30220,
    "Ġsupervisors": 36944,
    "Ġrice": 4991,
    "meric": 17998,
    "ĠBelize": 31284,
    "Load": 46107,
    "Ġtires": 15024,
    "ons": 995,
    "Ġadvant": 2287,
    "physema": 35821,
    "ĠPier": 19066,
    "placelholder": 38866,
    "Ġenrichment": 35600,
    "Ġblemishes": 42681,
    "Ġlyrical": 27624,
    "Ġchronicles": 28552,
    "Ġestablished": 6182,
    "ü": 189,
    "Coffee": 23066,
    "ĠTemplate": 48616,
    "Ġtensions": 10962,
    "Ġcontented": 23735,
    "Ġcapturing": 9736,
    "ĠHarness": 33865,
    "ikachu": 35127,
    "atra": 25183,
    "Madison": 49530,
    "vious": 11411,
    "ĠLaptop": 21008,
    "Ġnavel": 49257,
    "Ġtastes": 11144,
    "Ġends": 5163,
    "Ġsustains": 26709,
    "Ġ538": 38613,
    "NPS": 40163,
    "Ġinf": 1192,
    "240": 29625,
    "Ġmiracul": 32393,
    "03": 22208,
    "Ġhence": 12987,
    "rit": 908,
    "Ġguides": 11543,
    "Ġpruned": 42073,
    "Ġdwindled": 49584,
    "Bu": 17541,
    "Hypot": 15907,
    "Ġsqrt": 5881,
    "ĠGrease": 18689,
    "Ġfeasibility": 16749,
    "Ġsprinting": 32535,
    "ĠElectric": 9697,
    "Ġgrandson": 45908,
    "Ġchattered": 47780,
    "ĠMira": 19341,
    "Ġ1970": 17434,
    "ĠWitherspoon": 50096,
    "sIndex": 46327,
    "Ġwreaking": 42399,
    "ĠOvercrowding": 39971,
    "separ": 13582,
    "Ġdeterrent": 22160,
    "Ġrainco": 29045,
    "Ġpassphrase": 41023,
    "ĠMac": 7684,
    "Light": 18222,
    "ĠPoem": 26935,
    "achusetts": 15435,
    "Ġ`<!": 47312,
    "Ġnavigator": 44206,
    "Ġfixation": 31173,
    "Ġdilemmas": 32690,
    "ucleot": 31566,
    "antically": 22756,
    "Rom": 25134,
    "Ġlaunched": 8039,
    "ĠWhisk": 26246,
    "Ġbiomedical": 50004,
    "ĠDirected": 21781,
    "jud": 8742,
    "ĠHaf": 46947,
    "ĠViolence": 32915,
    "Ġmem": 1223,
    "Refute": 48855,
    "ighteen": 43432,
    "area": 9349,
    "/$": 50176,
    "omerate": 43225,
    "366": 39331,
    "Ġ1924": 44005,
    "iation": 3646,
    "ĠMN": 43488,
    "ĠĊĠĊ": 48871,
    "Ġbarbarian": 49782,
    "Ġsaltwater": 25465,
    "ĠConfed": 13045,
    "ĠKolk": 43894,
    "Ġexpenditures": 29509,
    "ĠOlymp": 10989,
    "Fu": 40116,
    "Ġlantern": 39753,
    "ĠReligion": 30238,
    "Ġessentially": 12739,
    "Ġ523": 40937,
    "Ġsweetheart": 39031,
    "Ġtw": 651,
    "Ġbrightly": 9957,
    "ĠManufacturing": 17132,
    "plant": 15637,
    "ae": 5749,
    "Ġbrimming": 26652,
    "Ġrepresented": 5693,
    "Ġ888": 36762,
    "Ġfrustration": 8596,
    "Ġgrossed": 49193,
    "Ġsmiles": 17014,
    "itates": 38136,
    "ĠPack": 11354,
    "Ġcandidacy": 41494,
    "gasus": 32700,
    "ĠProviders": 48383,
    "Ġtwinkle": 14051,
    "ĠHuawei": 39756,
    "ĠTri": 10919,
    "riel": 21517,
    "mid": 17345,
    "Do": 7769,
    "Ġattain": 11918,
    "amb": 5546,
    "textual": 40552,
    "itamins": 41482,
    "Ġboister": 44328,
    "anto": 46765,
    "erk": 19030,
    "Ten": 31743,
    "Ġclinging": 49566,
    "Evaluate": 7306,
    "Ġ899": 47474,
    "Ġjams": 27362,
    "Ġcrescend": 32746,
    "ĠORM": 45037,
    "poll": 28794,
    "Enumerate": 45870,
    "Paraphrase": 10364,
    "Ġtusks": 27828,
    "e": 73,
    "Ġpatio": 29968,
    "ĠCustomers": 7864,
    "Ġeclipse": 16750,
    "Cart": 20744,
    "ĠPeel": 22467,
    "Ġsubstitute": 10565,
    "Ġintensify": 32748,
    "mass": 23551,
    "Ġwedge": 38152,
    "Ġeat": 3735,
    "Dere": 40106,
    "Ġcone": 16618,
    "Ġhalls": 21499,
    "Ġirrigate": 49459,
    "Ġrigorously": 32569,
    "Ġlubricate": 42374,
    "ĠLucky": 33366,
    "means": 15980,
    "ĠP": 457,
    "friend": 2629,
    "Ġdepiction": 21996,
    "]\\": 30656,
    "Ġfirstly": 47339,
    "Fred": 34402,
    "sys": 38067,
    "Ġpublication": 13619,
    "Ġpublic": 1572,
    "ĠArithmetic": 38857,
    "ĠNatural": 5706,
    "Ġme": 521,
    "Ġconvicted": 27697,
    "roasted": 43209,
    "Ġframing": 26036,
    "Ġsalesperson": 26001,
    "Ġsheep": 17836,
    "Ġmagma": 21260,
    "Ġgame": 1618,
    "agos": 28933,
    "agn": 2684,
    "chinacea": 45682,
    "Ġreaping": 43230,
    "Ġhyperparameter": 17713,
    "Ġitemsets": 35003,
    "Ġconducts": 30129,
    "Ġhaul": 46826,
    "ĠHomepage": 37206,
    "Only": 32329,
    "Ġbattling": 44202,
    "ne": 561,
    "{|}~": 40008,
    "irable": 11387,
    "ĠOptimizing": 24931,
    "Ġcompeted": 33616,
    "called": 31768,
    "art": 481,
    "inkles": 16134,
    "Rating": 27878,
    "ĠTalk": 15471,
    "Ġenrolling": 28017,
    "Ġdisconnected": 22343,
    "ibility": 1569,
    "Ġbasilica": 48707,
    "Disrupt": 44920,
    "structure": 2885,
    "ĠGneiss": 47074,
    "Ġgrowling": 36695,
    "Ġbuddy": 28287,
    "Segment": 32671,
    "ogs": 7047,
    "Ġfins": 29972,
    "Ġgenerative": 21231,
    "Ġwarms": 21295,
    "Ġfees": 7584,
    "Ġphrases": 5988,
    "nx": 28792,
    "icity": 7774,
    "ć": 200,
    "Ġterr": 15513,
    "Bittersweet": 45652,
    "Optimize": 30457,
    "hou": 14259,
    "creative": 39923,
    "Ġsacrifice": 20691,
    "Ġintercept": 15192,
    "entence": 5619,
    "abulous": 39261,
    "Influencer": 35881,
    "Ġseasons": 9532,
    "hist": 14260,
    "ĠInterpretability": 32861,
    "Ġlet": 1365,
    "Ġpermit": 18826,
    "Ġarchitect": 3383,
    "Ġtombs": 35376,
    "Ġmanner": 3149,
    "ĠĊĉĉĉĉ": 46374,
    "Ġide": 1209,
    "Ġintegration": 6674,
    "ĠHarm": 25272,
    "Ġhopefully": 38932,
    "eres": 42967,
    "Ġgentle": 4019,
    "ND": 10258,
    "Ġheard": 4269,
    "Ġinteractions": 3680,
    "Ġpassports": 43914,
    "ĠCube": 15947,
    "eland": 23150,
    "ĠSound": 16982,
    "Ġnuclear": 6042,
    "ĠDem": 6859,
    "Ġsweltering": 47496,
    "ĠBovid": 43516,
    "ration": 2204,
    "(\\": 35991,
    "Ġinstallation": 9282,
    "ĠGain": 34825,
    "amps": 10127,
    "isors": 40411,
    "Ġbroch": 38875,
    "Ġsadly": 37142,
    "East": 31706,
    "Ġoverfitting": 10688,
    "mol": 15153,
    "stitution": 5784,
    "âĦ": 38096,
    "ĠPars": 27304,
    "Melting": 49529,
    "ĠSenator": 48683,
    "Ġlandforms": 28223,
    "Implementation": 37396,
    "anish": 5081,
    "Ġelevated": 21719,
    "ĠIndira": 44106,
    "Ġabbreviated": 25073,
    "Ġimprove": 898,
    "adeus": 47342,
    "ĠCheerful": 27531,
    "ĠHomo": 25042,
    "ĠPayPal": 22111,
    "Ġapplicable": 12475,
    "relenting": 19961,
    "aphrase": 9864,
    "Ġpoet": 13284,
    "ief": 5218,
    "Ġlb": 19043,
    "da": 14748,
    "vance": 9120,
    "though": 5369,
    "tud": 46330,
    "Comfort": 37069,
    "Ju": 21442,
    "2008": 23844,
    "Ġreserv": 7881,
    "Ġ600": 19109,
    "Ġnegotiate": 14588,
    "Ġadequately": 19733,
    "Ġunstable": 23012,
    "Ġpunctuation": 6679,
    "ĠLearn": 11196,
    "Ġhundreds": 10366,
    "ĠNGO": 30927,
    "Ġelite": 21620,
    "Ġside": 2018,
    "Ġguidebook": 41429,
    "ĠTsar": 49587,
    "Imper": 37088,
    "ĠScroll": 30071,
    "SERPs": 32875,
    "ĠClause": 44188,
    "Ġindoor": 12231,
    "Ġdishonest": 20391,
    "Ġsouthernmost": 48893,
    "ĠPurple": 23451,
    "svg": 45725,
    "Ġapologizing": 33891,
    "ups": 5056,
    "ety": 1010,
    "ĠSquarespace": 26355,
    "Zip": 34453,
    "Punct": 46144,
    "Ġ14": 3995,
    "Ġindul": 12169,
    "Ġbranching": 32484,
    "Ġscaled": 19707,
    "Ġfraught": 29153,
    "ĠUnleashing": 34982,
    "Ġidentification": 10643,
    "Ġcontenders": 46996,
    "orning": 19551,
    "Ġcommercially": 34354,
    "Ġimpart": 27299,
    "Ġtrampoline": 28699,
    "Ġhealer": 37381,
    "Ġexplos": 17415,
    "Ġ-->": 16199,
    "ĠDiagnost": 30431,
    "\\.": 24012,
    "Months": 42380,
    "Ġgross": 17578,
    "Ġmidst": 14708,
    "Ġearly": 3143,
    "ĠCheckout": 32435,
    "Ġstem": 13497,
    "Ġdesire": 5838,
    "Ġdampen": 36950,
    "Ġcaptures": 7758,
    "1962": 36823,
    "IMIT": 17508,
    "deviation": 49166,
    "earing": 12000,
    "Organizations": 44885,
    "ĠFounder": 33315,
    "Ġacorns": 36519,
    "Gross": 29642,
    "Ġvelvety": 30591,
    "ĠNY": 15498,
    "Ġdrugs": 9070,
    "ĠBear": 16993,
    "Robo": 39366,
    "aho": 26037,
    "arantine": 36250,
    "Ġtrekked": 31603,
    "ryer": 47109,
    "Ġowes": 41735,
    "Ġgit": 38229,
    "Ġequate": 43821,
    "ĠLepidoptera": 50104,
    "83": 11079,
    "combination": 35662,
    "GROUP": 14740,
    "Ġaccountant": 16682,
    "Ġ34": 12555,
    "Passive": 48959,
    "storm": 4871,
    "ĠQuiz": 27560,
    "ĠÎĶ": 30396,
    "ĠMaycomb": 25503,
    "stice": 40455,
    "Ġutilitarian": 41455,
    "ree": 664,
    "Ġempowers": 21305,
    "Ġstyles": 5505,
    "Ġkinesthetic": 48679,
    "Ġflowing": 9486,
    "ĠWheel": 39210,
    "Ġcompon": 2332,
    "ĠDorian": 45579,
    "ĠDress": 13383,
    "Ġailments": 27081,
    "Ġtimers": 31185,
    "â": 163,
    "Ġhour": 5408,
    "Collabor": 20737,
    "Ġdopamine": 29610,
    "urning": 46662,
    "Ġkilling": 15785,
    "Ġtob": 19559,
    "sel": 1158,
    "irich": 46660,
    "df": 24017,
    "purpose": 7697,
    "Ġsublist": 35020,
    "pol": 18235,
    "gments": 7260,
    "NASA": 27554,
    "cpp": 30663,
    "stdio": 34094,
    "Ġgoods": 3602,
    "Ġgiggles": 39513,
    "Ġcultiv": 36816,
    "<eos>": 3,
    "Ġcurrents": 13027,
    "oos": 15154,
    "Ġasylum": 30798,
    "Titanic": 25756,
    "Ġspheres": 27309,
    "umbles": 39094,
    "Ret": 11455,
    "Ġfloor": 5996,
    "Ġflourished": 19972,
    "Ġawaited": 23024,
    "Ġsustainably": 16295,
    "Ġdeepened": 38817,
    "Ġ`\"": 24192,
    "Ġcider": 20777,
    "Ġâĺ": 44330,
    "Ġconflicted": 39005,
    "stands": 43818,
    "iculum": 33154,
    "yss": 29032,
    "ĠAntioxidants": 45821,
    "inch": 6878,
    "Ġwastage": 20714,
    "Ġ447": 47307,
    "Ġcritics": 17648,
    "ize": 697,
    "Ġabbey": 34776,
    "Ġfiller": 41562,
    "Target": 19806,
    "ĠDomain": 29474,
    "ils": 4461,
    "ĠRansomware": 49913,
    "Ġsnail": 32264,
    "oughs": 33465,
    "Ġupon": 2107,
    "Ġagencies": 10396,
    "ĠCandidate": 42192,
    "ĠWhat": 2057,
    "Ġovereat": 42247,
    "Ġpassing": 6132,
    "Ġintroducing": 7169,
    "ĠOllie": 38528,
    "Ġsatire": 26026,
    "icon": 15616,
    "Ġtiredness": 32518,
    "371": 24961,
    "Ġdictatorship": 26342,
    "ĠBret": 36467,
    "Ġglobally": 9972,
    "Ġincent": 4164,
    "Reus": 47883,
    "Ġbooleans": 47632,
    "Logo": 49285,
    "Ġbathrooms": 22947,
    "PSU": 30418,
    "Ġdoubled": 23881,
    "quets": 36383,
    "Ġinsider": 47429,
    "Ġglaze": 25983,
    "ĠYouT": 11705,
    "Ġcomputing": 2914,
    "ĠOptional": 17609,
    "Ġexecuting": 12013,
    "Ġpurchase": 2959,
    "ivet": 46718,
    "Ġcamer": 3593,
    "Ġconglomerate": 45794,
    "Ġappetizers": 30307,
    "ĠAthletic": 42359,
    "ĠANOVA": 50073,
    "Optimism": 49708,
    "Ġasserting": 47286,
    "ĠKristie": 49487,
    "Ġreceives": 7664,
    "acamole": 17591,
    "Ġoldest": 11488,
    "Ġaided": 31825,
    "ĠCauses": 22535,
    "ierra": 23263,
    "ĠAdaptation": 29379,
    "renewable": 8743,
    "Maintaining": 42067,
    "when": 24574,
    "Ġcorrupted": 24419,
    "Ġfridge": 18250,
    "Ġantib": 12653,
    "Easy": 27856,
    "PPC": 27140,
    "Ġfounders": 32201,
    "Ġfacilit": 4478,
    "Robotics": 23395,
    "Ġintercepted": 30417,
    "riers": 18278,
    "ĠFoundations": 45035,
    "Ġassertiveness": 44972,
    "opp": 19275,
    "Ġimmedi": 38840,
    "lys": 30782,
    "Ġprot": 2861,
    "ĠPhysical": 7060,
    "Ġber": 6977,
    "Ġvibrant": 4237,
    "Ġfolders": 19360,
    "940": 50215,
    "Ġintentional": 23885,
    "Ġstranded": 15723,
    "chie": 1288,
    "oving": 21858,
    "Ġparables": 36799,
    "å¤": 38098,
    "Ġsometime": 35038,
    "Ġclosets": 44291,
    "Ġdeleted": 20375,
    "pand": 27172,
    "ombat": 48534,
    "ĠSamoa": 39299,
    "Ġlargely": 8231,
    "letter": 9206,
    "ĠAzure": 23458,
    "ĠBicycle": 31583,
    "cycl": 19623,
    ",'": 16367,
    "Ġsashimi": 49851,
    "Ġquantifiable": 44251,
    "joint": 34487,
    "Ġosteoporosis": 23499,
    "Ġspeeding": 16863,
    "next": 8908,
    "Ġheated": 10622,
    "Ġlocally": 11621,
    "EVs": 34399,
    "Ġsever": 1245,
    "Ġinnov": 2372,
    "olotl": 39926,
    "Ġfrost": 12842,
    "ĠUnfortunately": 20885,
    "Ġenterprises": 31212,
    "Ġliners": 42290,
    "ĠUdemy": 34253,
    "ĠJama": 23698,
    "Kn": 36046,
    "Ġassistance": 4451,
    "Ġ1928": 33527,
    "Ġtra": 572,
    "Habitat": 49713,
    "ĠMon": 2829,
    "Ġatmosp": 2236,
    "ĠNeighborhood": 45649,
    "eteria": 31894,
    "Ġmail": 10121,
    "Quick": 22931,
    "apon": 42929,
    "Ġdeployed": 12032,
    "Ġblueberry": 36908,
    "Ġ1100": 36958,
    "raint": 31916,
    "Ġseasonal": 11719,
    "golf": 34476,
    "Movie": 19760,
    "Ġled": 2886,
    "scopic": 41198,
    "Ġmirrored": 48763,
    "nesian": 27683,
    "Ġquestion": 2280,
    "aves": 1873,
    "Ġwasabi": 46997,
    "sup": 21862,
    "Ġphil": 47192,
    "ĠDivide": 10076,
    "atiable": 29731,
    "ocity": 8818,
    "apper": 24252,
    "Ġprotot": 10498,
    "r": 86,
    "Ġlen": 6504,
    "ĠCage": 38335,
    "Ġmalleable": 42623,
    "Ġdelivery": 3429,
    "Sticking": 47734,
    "Ġunpredictable": 9914,
    "Ġaddress": 1726,
    "ĠtargetSum": 47562,
    "ĠSnork": 41781,
    "Ġcrayon": 37625,
    "hold": 3642,
    "ivide": 7995,
    "Ġpregn": 21208,
    "Ġhazards": 11328,
    "Ġdise": 2009,
    "ĠQual": 24269,
    "Ġindic": 2681,
    "Ġpowder": 4927,
    "Ġluck": 7967,
    "undai": 47842,
    "Inverse": 38584,
    "Ġencro": 41104,
    "ĠTacos": 40526,
    "infl": 16786,
    "Ġcurriculum": 13952,
    "cape": 42946,
    "ĠrandomNumber": 41406,
    "itas": 9752,
    "ĠBehavioral": 30424,
    "ĠCl": 2386,
    "anthemum": 45796,
    "threaded": 35742,
    "Ġdisappoint": 8460,
    "list": 3813,
    "Ġcon": 374,
    "ĠCommunications": 44482,
    "profits": 32315,
    "Ġdollars": 9777,
    "Ġripple": 18706,
    "Ġ753": 48693,
    "Ġvendor": 23912,
    "Ġwelcomes": 41563,
    "Race": 46149,
    "Ġstretches": 13323,
    "ĠKristoff": 45527,
    "stocked": 26480,
    "Ġenlarge": 46806,
    "erobic": 17349,
    "Ġcell": 2055,
    "2018": 27473,
    "stricken": 41172,
    "layered": 22175,
    "ĠLasagna": 34072,
    "ĠFajitas": 46991,
    "innov": 43098,
    "Ġdaytime": 27401,
    "meter": 38036,
    "Gu": 10849,
    "Ġrequirement": 13740,
    "untary": 22096,
    "Ġbin": 11460,
    "Ġerode": 29133,
    "ĠRaja": 49414,
    "Crazy": 37644,
    "Ġmedications": 9525,
    "iam": 6216,
    "Ġhomophones": 24451,
    "Ġperfection": 15728,
    "Ġsift": 21121,
    "find": 11155,
    "Oxygen": 28752,
[...]
